{
    "0": "\u0000",
    "1": "\u0001",
    "2": "\u0002",
    "3": "\u0003",
    "4": "\u0004",
    "5": "\u0005",
    "6": "\u0006",
    "7": "\u0007",
    "8": "\b",
    "9": "\t",
    "10": "\n",
    "11": "\u000b",
    "12": "\f",
    "13": "\r",
    "14": "\u000e",
    "15": "\u000f",
    "16": "\u0010",
    "17": "\u0011",
    "18": "\u0012",
    "19": "\u0013",
    "20": "\u0014",
    "21": "\u0015",
    "22": "\u0016",
    "23": "\u0017",
    "24": "\u0018",
    "25": "\u0019",
    "26": "\u001a",
    "27": "\u001b",
    "28": "\u001c",
    "29": "\u001d",
    "30": "\u001e",
    "31": "\u001f",
    "32": " ",
    "33": "!",
    "34": "\"",
    "35": "#",
    "36": "$",
    "37": "%",
    "38": "&",
    "39": "'",
    "40": "(",
    "41": ")",
    "42": "*",
    "43": "+",
    "44": ",",
    "45": "-",
    "46": ".",
    "47": "/",
    "48": "0",
    "49": "1",
    "50": "2",
    "51": "3",
    "52": "4",
    "53": "5",
    "54": "6",
    "55": "7",
    "56": "8",
    "57": "9",
    "58": ":",
    "59": ";",
    "60": "<",
    "61": "=",
    "62": ">",
    "63": "?",
    "64": "@",
    "65": "A",
    "66": "B",
    "67": "C",
    "68": "D",
    "69": "E",
    "70": "F",
    "71": "G",
    "72": "H",
    "73": "I",
    "74": "J",
    "75": "K",
    "76": "L",
    "77": "M",
    "78": "N",
    "79": "O",
    "80": "P",
    "81": "Q",
    "82": "R",
    "83": "S",
    "84": "T",
    "85": "U",
    "86": "V",
    "87": "W",
    "88": "X",
    "89": "Y",
    "90": "Z",
    "91": "[",
    "92": "\\",
    "93": "]",
    "94": "^",
    "95": "_",
    "96": "`",
    "97": "a",
    "98": "b",
    "99": "c",
    "100": "d",
    "101": "e",
    "102": "f",
    "103": "g",
    "104": "h",
    "105": "i",
    "106": "j",
    "107": "k",
    "108": "l",
    "109": "m",
    "110": "n",
    "111": "o",
    "112": "p",
    "113": "q",
    "114": "r",
    "115": "s",
    "116": "t",
    "117": "u",
    "118": "v",
    "119": "w",
    "120": "x",
    "121": "y",
    "122": "z",
    "123": "{",
    "124": "|",
    "125": "}",
    "126": "~",
    "127": "",
    "128": "",
    "129": "",
    "130": "",
    "131": "",
    "132": "",
    "133": "",
    "134": "",
    "135": "",
    "136": "",
    "137": "",
    "138": "",
    "139": "",
    "140": "",
    "141": "",
    "142": "",
    "143": "",
    "144": "",
    "145": "",
    "146": "",
    "147": "",
    "148": "",
    "149": "",
    "150": "",
    "151": "",
    "152": "",
    "153": "",
    "154": "",
    "155": "",
    "156": "",
    "157": "",
    "158": "",
    "159": "",
    "160": "",
    "161": "",
    "162": "",
    "163": "",
    "164": "",
    "165": "",
    "166": "",
    "167": "",
    "168": "",
    "169": "",
    "170": "",
    "171": "",
    "172": "",
    "173": "",
    "174": "",
    "175": "",
    "176": "",
    "177": "",
    "178": "",
    "179": "",
    "180": "",
    "181": "",
    "182": "",
    "183": "",
    "184": "",
    "185": "",
    "186": "",
    "187": "",
    "188": "",
    "189": "",
    "190": "",
    "191": "",
    "192": "",
    "193": "",
    "194": "",
    "195": "",
    "196": "",
    "197": "",
    "198": "",
    "199": "",
    "200": "",
    "201": "",
    "202": "",
    "203": "",
    "204": "",
    "205": "",
    "206": "",
    "207": "",
    "208": "",
    "209": "",
    "210": "",
    "211": "",
    "212": "",
    "213": "",
    "214": "",
    "215": "",
    "216": "",
    "217": "",
    "218": "",
    "219": "",
    "220": "",
    "221": "",
    "222": "",
    "223": "",
    "224": "",
    "225": "",
    "226": "",
    "227": "",
    "228": "",
    "229": "",
    "230": "",
    "231": "",
    "232": "",
    "233": "",
    "234": "",
    "235": "",
    "236": "",
    "237": "",
    "238": "",
    "239": "",
    "240": "",
    "241": "",
    "242": "",
    "243": "",
    "244": "",
    "245": "",
    "246": "",
    "247": "",
    "248": "",
    "249": "",
    "250": "",
    "251": "",
    "252": "",
    "253": "",
    "254": "",
    "255": "",
    "256": "",
    "257": "",
    "258": " ",
    "259": "్",
    "260": "్",
    "261": "ి",
    "262": "ా",
    "263": "ు",
    "264": "ా",
    "265": "ి",
    "266": "",
    "267": "ు",
    "268": "",
    "269": "‌",
    "270": "్‌",
    "271": "ో",
    "272": "ర",
    "273": "న",
    "274": "ం",
    "275": "ు ",
    "276": "ే",
    "277": "ల",
    "278": "ి ",
    "279": "  ",
    "280": "ీ",
    "281": "క",
    "282": "ె",
    "283": "్‌ ",
    "284": "\n",
    "285": "ార",
    "286": "్ర",
    "287": "స",
    "288": "ిం",
    "289": "ో ",
    "290": "త",
    "291": "్ల",
    "292": "ట",
    "293": "ం",
    "294": "ా ",
    "295": "్య",
    "296": "్న",
    "297": "ద",
    "298": "ాల",
    "299": "మ",
    "300": "వ",
    "301": "ప",
    "302": "ం ",
    "303": "    ",
    "304": "డ",
    "305": "ిక",
    "306": "య",
    "307": "ై",
    "308": "్త",
    "309": "ుల",
    "310": "ిన",
    "311": "ాన",
    "312": "్ట",
    "313": "ంద",
    "314": "ించ",
    "315": "ూ",
    "316": "ే ",
    "317": "్ర",
    "318": "గ",
    "319": "ొ",
    "320": "ర్",
    "321": "ుక",
    "322": "ున",
    "323": " స",
    "324": "ే",
    "325": "ుం",
    "326": "ి",
    "327": "ాయ",
    "328": " క",
    "329": "ింద",
    "330": "ంత",
    "331": "శ",
    "332": "ీ ",
    "333": "న్న",
    "334": "ిల",
    "335": "ిత",
    "336": "ని ",
    "337": "ంగ",
    "338": "ున్న",
    "339": "్ప",
    "340": "్స",
    "341": "ిస",
    "342": "ెల",
    "343": "్వ",
    "344": " మ",
    "345": "ాడ",
    "346": "ు\n",
    "347": "కు ",
    "348": " ప",
    "349": "ారు ",
    "350": "క్",
    "351": "ాం",
    "352": "లో ",
    "353": "ూ",
    "354": "హ",
    "355": "ుత",
    "356": "ండ",
    "357": "ాత",
    "358": " వ",
    "359": "చ",
    "360": "ాట",
    "361": "ిర",
    "362": "ంల",
    "363": "ుగ",
    "364": " అ",
    "365": "ి\n",
    "366": "        ",
    "367": " న",
    "368": "జ",
    "369": "ిప",
    "370": "ంట",
    "371": "ాద",
    "372": "బ",
    "373": "ను ",
    "374": "ట్ట",
    "375": "ియ",
    "376": "ష",
    "377": "ణ",
    "378": "ట్ల",
    "379": "ీస",
    "380": "ేస",
    "381": "ిగ",
    "382": "్చ",
    "383": "్థ",
    "384": " ",
    "385": "ుర",
    "386": "్మ",
    "387": "ధ",
    "388": " 1",
    "389": "’",
    "390": "‘",
    "391": "ప్ప",
    "392": "ుడ",
    "393": "ళ",
    "394": "ుంద",
    "395": "ంలో ",
    "396": "ికి ",
    "397": "ింది ",
    "398": "లు ",
    "399": "ులు ",
    "400": "ాక",
    "401": " ర",
    "402": "ర్‌ ",
    "403": "ామ",
    "404": "ీ",
    "405": "ర్‌",
    "406": "ాగ",
    "407": "ైన",
    "408": "భ",
    "409": "ేశ",
    "410": " 2",
    "411": "ు\n",
    "412": "ంగా ",
    "413": "న్‌ ",
    "414": "న్‌",
    "415": "చ్చ",
    "416": "ింగ",
    "417": "తో ",
    "418": "ువ",
    "419": "ివ",
    "420": "ిస్త",
    "421": " బ",
    "422": " ఆ",
    "423": " ప్ర",
    "424": " త",
    "425": "క్ష",
    "426": "ద్",
    "427": "క్క",
    "428": "్డ",
    "429": "లో",
    "430": "్క",
    "431": "ె",
    "432": "ృ",
    "433": "ాలు ",
    "434": "ంచ",
    "435": "త్త",
    "436": "ర్ల",
    "437": "ారం ",
    "438": "ిమ",
    "439": "ావ",
    "440": "ాడు ",
    "441": "ాస",
    "442": "ల్ల",
    "443": "ోర",
    "444": " వి",
    "445": "ాజ",
    "446": "ూడ",
    "447": "ె",
    "448": "గా ",
    "449": "ౌ",
    "450": "్‌\n",
    "451": "ాబ",
    "452": " ‘",
    "453": "\nక",
    "454": " ద",
    "455": "ేద",
    "456": "ొ",
    "457": "్ని ",
    "458": "ూర",
    "459": "్‌ స",
    "460": "్‌లో ",
    "461": "ోల",
    "462": "్యా",
    "463": "ళ్ల",
    "464": "ంది ",
    "465": "ెల",
    "466": " జ",
    "467": "ఫ",
    "468": "ార",
    "469": " చ",
    "470": "ద్ద",
    "471": "ంతో ",
    "472": "్గ",
    "473": "ీల",
    "474": "్‌ క",
    "475": "ం\n",
    "476": "స్త",
    "477": "ా\n",
    "478": "ర",
    "479": "ానికి ",
    "480": "      ",
    "481": "పై",
    "482": "ుంచ",
    "483": "ార",
    "484": "ి\n",
    "485": " శ",
    "486": "ిట",
    "487": "ాధ",
    "488": "ాయి ",
    "489": "ు.",
    "490": "్‌ ",
    "491": "్థ",
    "492": "ించిన",
    "493": "థ",
    "494": "ి.",
    "495": "స్ట",
    "496": "ాణ",
    "497": "ిల్ల",
    "498": "ట్లు ",
    "499": "ాన్ని ",
    "500": "న్న",
    "501": "ిద",
    "502": "ుకు ",
    "503": "ెర",
    "504": "స",
    "505": " గ",
    "506": "ెట",
    "507": "ైద",
    "508": "ుప",
    "509": "ంప",
    "510": "ుద",
    "511": " కో",
    "512": "డ్డ",
    "513": "ోన",
    "514": "ో\n",
    "515": "ి స",
    "516": "ి వ",
    "517": "న",
    "518": "ుడు ",
    "519": "ుకున్న",
    "520": "ేంద",
    "521": "ి క",
    "522": "ిత్ర",
    "523": "ిష",
    "524": "ోవ",
    "525": "ారత",
    "526": " ల",
    "527": "00",
    "528": "ి మ",
    "529": "ూ",
    "530": "ేక",
    "531": "ిచ",
    "532": "ేస",
    "533": "ెండ",
    "534": "్స్‌ ",
    "535": "ీక",
    "536": "ాబాద",
    "537": "ాంక",
    "538": "ులో ",
    "539": "్లో ",
    "540": "ేయ",
    "541": " ఇ",
    "542": "ంద",
    "543": "త్య",
    "544": "ోయ",
    "545": "ంక",
    "546": "ీవ",
    "547": "ేర",
    "548": "ి న",
    "549": "ాహ",
    "550": "ేశ",
    "551": " పర",
    "552": "ోక",
    "553": " 3",
    "554": "ాప",
    "555": "ల్‌ ",
    "556": "ాశ",
    "557": "ష్ట",
    "558": "_      ",
    "559": "ేట",
    "560": "ర",
    "561": "ోగ",
    "562": "వ",
    "563": "ేష",
    "564": "్రమ",
    "565": "ోద",
    "566": "్స్‌",
    "567": "ీయ",
    "568": "\nన",
    "569": "డం ",
    "570": "రాబాద",
    "571": "ర్వ",
    "572": " సం",
    "573": "ేవ",
    "574": "్యాచ",
    "575": "ుంట",
    "576": "ు క",
    "577": "ైదరాబాద",
    "578": "ర్థ",
    "579": "ీన",
    "580": " ఈ",
    "581": "ైదరాబాద",
    "582": "\nస",
    "583": "్‌",
    "584": "ర్శ",
    "585": "ిర",
    "586": "                ",
    "587": "ూస",
    "588": "ె",
    "589": "ర",
    "590": "ేల",
    "591": "మ్మ",
    "592": "ీస",
    "593": "ీర",
    "594": "ుమ",
    "595": "య్య",
    "596": "ు స",
    "597": "        _      ",
    "598": "ొల",
    "599": "ి అ",
    "600": "క",
    "601": "ిశ",
    "602": "ోజ",
    "603": "ూప",
    "604": "ించారు ",
    "605": "ిస్తున్న",
    "606": "్య",
    "607": "ిజ",
    "608": "ం క",
    "609": "ి ప",
    "610": "్‌ మ",
    "611": "ుస",
    "612": " ఎ",
    "613": "ుతున్న",
    "614": "ిలో ",
    "615": "ా స",
    "616": "-1",
    "617": "ాత్ర",
    "618": "ేస్త",
    "619": "ంధ",
    "620": "గ్గ",
    "621": "్‌ అ",
    "622": "ోట",
    "623": "ధిక",
    "624": "ారు\n",
    "625": "ినిమ",
    "626": "య",
    "627": "ారు.",
    "628": "ి ర",
    "629": "్‌ ప",
    "630": "ోస",
    "631": "వారం ",
    "632": "ారు\n",
    "633": " ట",
    "634": "ా క",
    "635": "ీప",
    "636": "ుండ",
    "637": "ర",
    "638": "్యక",
    "639": "ాండ",
    "640": "ెలిప",
    "641": "యన",
    "642": " 20",
    "643": "ూల",
    "644": "ాళ",
    "645": "ించింది ",
    "646": "ీడ",
    "647": " 4",
    "648": "ంబ",
    "649": "ెక",
    "650": "ింట",
    "651": "ు న",
    "652": "ెన",
    "653": "\nర",
    "654": "ెల్ల",
    "655": "ల",
    "656": "ుర",
    "657": "ాంట",
    "658": "్‌కు ",
    "659": "ాంత",
    "660": "వర",
    "661": "ింగ్‌ ",
    "662": "ు మ",
    "663": "నే ",
    "664": "ోత",
    "665": "్ష",
    "666": "ూడా ",
    "667": "ాం",
    "668": " కోట్ల",
    "669": "ే\n",
    "670": "్బ",
    "671": "మె",
    "672": "ెంద",
    "673": "డంతో ",
    "674": "ంట",
    "675": "ేసిన",
    "676": "మ",
    "677": "ాష",
    "678": "ి త",
    "679": " ఏ",
    "680": "ెప్ప",
    "681": "ండ",
    "682": "ేత",
    "683": "రణ",
    "684": " శాత",
    "685": "ి ఆ",
    "686": "ుణ",
    "687": "మైన",
    "688": "్‌ ర",
    "689": "ేశ",
    "690": "’ అ",
    "691": "ధ్య",
    "692": " సమ",
    "693": "ంభ",
    "694": "కాశ",
    "695": "ాట",
    "696": "త",
    "697": "్ణ",
    "698": "ల్లో ",
    "699": "్రిక",
    "700": "ుగా ",
    "701": "ేడ",
    "702": "పంచ",
    "703": "ీసుక",
    "704": " 5",
    "705": "\n  ",
    "706": "ాల్లో ",
    "707": "ంత్ర",
    "708": "్‌ట",
    "709": "్‌క",
    "710": "ు వ",
    "711": "్ట్ర",
    "712": "ోప",
    "713": "ుబ",
    "714": "ం వ",
    "715": " నుంచ",
    "716": "ాలని ",
    "717": "ుత్వ",
    "718": "్‌ ఆ",
    "719": " చిత్ర",
    "720": "ేంద్ర",
    "721": "ీఐ",
    "722": "ాగ",
    "723": "్‌ న",
    "724": "ులకు ",
    "725": "ోని ",
    "726": "ిగా ",
    "727": "భుత్వ",
    "728": " హ",
    "729": "ారణ",
    "730": "20",
    "731": "ిడ",
    "732": "ుమార",
    "733": "\nమ",
    "734": "ీమ",
    "735": "ుట",
    "736": "ే క",
    "737": "ం స",
    "738": "ోలీస",
    "739": "్‌ బ",
    "740": "ొత్త",
    "741": "ప్పట",
    "742": "ెడ్డ",
    "743": "ంజ",
    "744": "ి ప్ర",
    "745": " ఓ",
    "746": "ీత",
    "747": "ాఖ",
    "748": "ర్స",
    "749": "ప్ర",
    "750": "ేప",
    "751": "ృత",
    "752": "ోహ",
    "753": "ు అ",
    "754": "ొల",
    "755": "న",
    "756": "ీ క",
    "757": "ా వ",
    "758": "్‌లో",
    "759": "్యవ",
    "760": "ింది.",
    "761": "ేర్",
    "762": "్‌ వ",
    "763": "ింప",
    "764": "ీ స",
    "765": "ెన",
    "766": "ిగిన",
    "767": "ాళ్ల",
    "768": "ీఎస",
    "769": " ఫ",
    "770": "్‌ను ",
    "771": "ెందిన",
    "772": "ర్మ",
    "773": "్‌స",
    "774": " డ",
    "775": " 6",
    "776": "ీ\n",
    "777": "్యాప",
    "778": "ీఎ",
    "779": "ేమ",
    "780": "ాలను ",
    "781": "ేజ",
    "782": "ి బ",
    "783": "ు ప",
    "784": "ెట్ట",
    "785": "ొచ్చ",
    "786": "ానిక",
    "787": "ద",
    "788": "ూర్త",
    "789": "ర్వాత",
    "790": "్జ",
    "791": "ర్థిక",
    "792": "ెట్ల",
    "793": "ంపెన",
    "794": "ెండ",
    "795": "్ర",
    "796": "క్కడ",
    "797": "ోంది ",
    "798": " ఉ",
    "799": "స్థ",
    "800": "్‌ జ",
    "801": "ం న",
    "802": "మోద",
    "803": "పడ",
    "804": "ియా ",
    "805": "్‌ల",
    "806": "ు ",
    "807": "ండ",
    "808": "ేర",
    "809": "ిబ",
    "810": "ేన",
    "811": "ిత్ర",
    "812": "వకాశ",
    "813": "ద",
    "814": "య",
    "815": "ాల్స",
    "816": "ౌల",
    "817": "ి ద",
    "818": "ుకోవ",
    "819": "్యూ",
    "820": "య",
    "821": "న్నారు ",
    "822": "ాభ",
    "823": "్యాంక",
    "824": "ీట",
    "825": "ితే ",
    "826": " పరుగ",
    "827": "ాచ",
    "828": "టన",
    "829": "్ద",
    "830": "       ",
    "831": "ిజయ",
    "832": "ర్శక",
    "833": "ాట్ల",
    "834": "ి జ",
    "835": "ోంద",
    "836": "ేర్కొ",
    "837": "ిళ",
    "838": " స్థ",
    "839": "్‌ 1",
    "840": "ని\n",
    "841": " ‘‘",
    "842": "ిస్థ",
    "843": "ఎ",
    "844": "ద్ధ",
    "845": "ేందుకు ",
    "846": "రించ",
    "847": "్ర",
    "848": "ుకున",
    "849": "ద",
    "850": "ు 1",
    "851": "ెస్ట",
    "852": "ి ",
    "853": "్వహ",
    "854": "                       ",
    "855": "ధికార",
    "856": "ుతుంద",
    "857": "ిన్న",
    "858": "ు ర",
    "859": "ుకుంట",
    "860": "ోర్ట",
    "861": "ా మ",
    "862": "ుదల",
    "863": "ింది\n",
    "864": "నిప",
    "865": "\nవ",
    "866": "ుంబ",
    "867": "ాష్ట్ర",
    "868": "కప",
    "869": "ధాన",
    "870": "యన",
    "871": "్ధ",
    "872": "్య",
    "873": "ం మ",
    "874": "్వర",
    "875": "ిల",
    "876": "్రక",
    "877": "ర్‌",
    "878": "ంస్థ",
    "879": "ిల్ల",
    "880": "ర్జ",
    "881": "ెస",
    "882": " కార",
    "883": "్‌బ",
    "884": "ర",
    "885": "ి ఇ",
    "886": "ంద",
    "887": "నాడు ",
    "888": "ెంట",
    "889": "ుతూ",
    "890": " య",
    "891": "ిడ",
    "892": "ర్చ",
    "893": "ే మ",
    "894": " 201",
    "895": "\nప",
    "896": "ూన",
    "897": "చ్చ",
    "898": " సంస్థ",
    "899": "ంత",
    "900": "ాతీయ",
    "901": "క్కువ",
    "902": "ి చ",
    "903": " లక్ష",
    "904": "్వార",
    "905": "ఖ",
    "906": "ీజ",
    "907": "ోడ",
    "908": "ాయింట",
    "909": " నిర",
    "910": "మ",
    "911": "ీలో ",
    "912": "ేద",
    "913": "ాలకు ",
    "914": "ాల",
    "915": "స్తుత",
    "916": "ుకుంద",
    "917": "ులను ",
    "918": "ల",
    "919": "ెర",
    "920": "ొన",
    "921": "ాట్లాడ",
    "922": "గ్ర",
    "923": " 7",
    "924": "ాలో ",
    "925": "త",
    "926": "ొంద",
    "927": "ప్పుడు ",
    "928": "్రపంచ",
    "929": "ొద",
    "930": "ాయింట్ల",
    "931": "ిధ",
    "932": "డ",
    "933": "ోర్న",
    "934": " భ",
    "935": "్రయ",
    "936": "ను\n",
    "937": "్‌ ట",
    "938": "్యక్త",
    "939": "్‌తో ",
    "940": "ెడ",
    "941": "ెట్ట",
    "942": " సినిమ",
    "943": "ు త",
    "944": "\n    ",
    "945": "ైల",
    "946": "ం చేస",
    "947": "్రత",
    "948": "బ్బ",
    "949": "ీలు ",
    "950": "ేశారు ",
    "951": "ుల్ల",
    "952": "లేద",
    "953": "వర్ల",
    "954": " ష",
    "955": "ేర్ల",
    "956": "ే స",
    "957": "థ్య",
    "958": "్య",
    "959": "్రయ",
    "960": "ం త",
    "961": "-2",
    "962": "ి 1",
    "963": "ేస్తున్న",
    "964": "ా న",
    "965": "డ",
    "966": "ీ మ",
    "967": " జట్ట",
    "968": "నున్న",
    "969": "్‌ 3",
    "970": "ోమ",
    "971": "ంపై",
    "972": "ేయ",
    "973": "కు\n",
    "974": "లకు ",
    "975": "ు\nక",
    "976": "ివారం ",
    "977": "డాద",
    "978": "ిపై",
    "979": "ిపోయ",
    "980": "సర",
    "981": "ేర్కొ",
    "982": "ృద్ధ",
    "983": "ంగళ",
    "984": "’’ అ",
    "985": "ులు\n",
    "986": "్రభుత్వ",
    "987": "ివర",
    "988": "డానికి ",
    "989": "ేపథ్య",
    "990": "ార్డ",
    "991": "ప్పటిక",
    "992": "సాగ",
    "993": "భ్య",
    "994": " వర",
    "995": " \"",
    "996": "ిధ",
    "997": " బ్య",
    "998": "ైర",
    "999": "ెల్లడ",
    "1000": "ిణ",
    "1001": "ాహన",
    "1002": "ెరిక",
    "1003": "ంటుంద",
    "1004": "ర",
    "1005": "ేళ్ల",
    "1006": "ంటే ",
    "1007": "ాయక",
    "1008": "ౌట",
    "1009": "ెచ",
    "1010": "్యూస",
    "1011": "ాన్న",
    "1012": " 8",
    "1013": "ద",
    "1014": "్‌ ద",
    "1015": "మై",
    "1016": "ూచ",
    "1017": "ాంప",
    "1018": "ా అ",
    "1019": "్‌ 2",
    "1020": "ెళ్ల",
    "1021": "ొన్న",
    "1022": "ి\nక",
    "1023": "న్నింగ",
    "1024": "ెప",
    "1025": "కాల",
    "1026": "-0",
    "1027": "ారు\n        _      ",
    "1028": "ైట",
    "1029": " అన",
    "1030": "ారు",
    "1031": "ిశ",
    "1032": "ింది\n",
    "1033": "ాస్త",
    "1034": "దర్శ",
    "1035": "ు బ",
    "1036": "రిగిన",
    "1037": "్‌ త",
    "1038": "ార్ల",
    "1039": "ిల",
    "1040": "్‌పై",
    "1041": "ట్ట",
    "1042": "ిడుదల",
    "1043": "దుర",
    "1044": "ాన",
    "1045": "ంగ్ల",
    "1046": "ృష్ట",
    "1047": "ుల్లో ",
    "1048": "ోలీస",
    "1049": "\nఅ",
    "1050": "్రికెట",
    "1051": "ైప",
    "1052": "\n                       ",
    "1053": "ానీ ",
    "1054": "్ణయ",
    "1055": "ేగ",
    "1056": " విక",
    "1057": "ాఫ",
    "1058": "ొన",
    "1059": "్‌ గ",
    "1060": "ీద",
    "1061": "ిఫ",
    "1062": "ూ1",
    "1063": "త్ర",
    "1064": "ే అవకాశ",
    "1065": "ాలుగ",
    "1066": "్యూస్‌ట",
    "1067": "్యూస్‌టుడ",
    "1068": "స",
    "1069": "ర్ష",
    "1070": " భారత",
    "1071": "ారంభ",
    "1072": "ెళ్ల",
    "1073": "లను ",
    "1074": "్రత్య",
    "1075": "ీ",
    "1076": "ా ప",
    "1077": "ెక్ట",
    "1078": "ూస",
    "1079": "ొర",
    "1080": "త్న",
    "1081": "్‌ర",
    "1082": " తర్వాత",
    "1083": "\n   ",
    "1084": "ుధ",
    "1085": "ెయ",
    "1086": "\n*",
    "1087": "ంతర",
    "1088": "వ్వ",
    "1089": "్రై",
    "1090": " 9",
    "1091": "ుష",
    "1092": "దేశ",
    "1093": "హిళ",
    "1094": " వద్ద",
    "1095": "మ",
    "1096": "ోనే ",
    "1097": "ాల",
    "1098": "త్స",
    "1099": "ుస్త",
    "1100": "గ్గ",
    "1101": "ాడు.",
    "1102": "్రస్తుత",
    "1103": "ల",
    "1104": "ిస్థిత",
    "1105": "ంది ",
    "1106": "ిర్వహ",
    "1107": "ాల్ల",
    "1108": " ‘",
    "1109": "ైత",
    "1110": "ు ద",
    "1111": "ంటూ",
    "1112": "\nబ",
    "1113": "ు చేస",
    "1114": "్రధాన",
    "1115": "్రీడ",
    "1116": "ట",
    "1117": " విషయ",
    "1118": "ూడా ",
    "1119": "ోష",
    "1120": " పాయింట్ల",
    "1121": "ర్భ",
    "1122": "్యాయ",
    "1123": "్యాట",
    "1124": "ార",
    "1125": "ంబంధ",
    "1126": "ైక",
    "1127": "క్క",
    "1128": "ికల",
    "1129": "ెక్క",
    "1130": "ం ప",
    "1131": "్రకట",
    "1132": "’’",
    "1133": "ిస",
    "1134": "ర్డ",
    "1135": "టన",
    "1136": "ర్య",
    "1137": "వార",
    "1138": "ంట",
    "1139": "క్త",
    "1140": "ాంప",
    "1141": " రూ",
    "1142": "మన",
    "1143": "తి ",
    "1144": "  ",
    "1145": "నాడు ",
    "1146": "ే న",
    "1147": "ెప్ట",
    "1148": "ంద",
    "1149": "ిండ",
    "1150": "ాతో ",
    "1151": "ప్పుడ",
    "1152": " మ్యాచ",
    "1153": "రో ",
    "1154": "ార్క",
    "1155": "ు,",
    "1156": "ౌండ",
    "1157": "\n‘",
    "1158": "ితో ",
    "1159": " మార",
    "1160": "50",
    "1161": "ామని ",
    "1162": "్‌ ల",
    "1163": "ొత్త",
    "1164": "ంచన",
    "1165": "్ర",
    "1166": "ీలక",
    "1167": "ియోగ",
    "1168": "ృష",
    "1169": "ార్థ",
    "1170": "ిర్మ",
    "1171": "ాధించ",
    "1172": "ర",
    "1173": "ుర్త",
    "1174": "్యాల",
    "1175": "ి ఎ",
    "1176": "ేపథ్యంలో ",
    "1177": "ీఏ",
    "1178": "్యత",
    "1179": "ఐ",
    "1180": "్‌-",
    "1181": " అవ",
    "1182": "థాన",
    "1183": " ఓవర్ల",
    "1184": "ీ వ",
    "1185": "ొంత",
    "1186": "్యాప్త",
    "1187": "ీ న",
    "1188": " లక్షల",
    "1189": "ెన్‌ ",
    "1190": " (",
    "1191": "ెన్స",
    "1192": "ాంపియ",
    "1193": "మె",
    "1194": "ాట్లాడుతూ",
    "1195": "్‌’",
    "1196": " ఆర్థిక",
    "1197": "స్ట్ర",
    "1198": "ాక్ట",
    "1199": "ిలిచ",
    "1200": "×",
    "1201": "ానే ",
    "1202": "ంశ",
    "1203": "్‌ ఎ",
    "1204": "ంలో\n",
    "1205": "తడ",
    "1206": "యంలో ",
    "1207": "ీక్ష",
    "1208": "్రమ",
    "1209": "ుచ",
    "1210": "ప",
    "1211": "భ",
    "1212": "ుక్ర",
    "1213": "ాజ",
    "1214": "ాలన",
    "1215": "ిక",
    "1216": "ికర",
    "1217": "్‌ ఫ",
    "1218": "ాడు\n",
    "1219": "\nల",
    "1220": "్వ",
    "1221": "్‌ఎ",
    "1222": "ు\nన",
    "1223": " 11",
    "1224": "ంలోని ",
    "1225": " వార",
    "1226": "ును ",
    "1227": "ంలో",
    "1228": " పరుగుల",
    "1229": "్రారంభ",
    "1230": " మధ్య",
    "1231": "్‌ప",
    "1232": "ారని ",
    "1233": "్‌ 4",
    "1234": "ెమ",
    "1235": "మే ",
    "1236": "\n        _      ",
    "1237": "్‌,",
    "1238": "ాలు\n",
    "1239": "ాయని ",
    "1240": "ద్దర",
    "1241": "ెట్లు ",
    "1242": "ెలిస",
    "1243": "ంబర",
    "1244": "లిత",
    "1245": "ాటు ",
    "1246": " ఐ",
    "1247": "ెల్ల",
    "1248": " మంది ",
    "1249": "ట",
    "1250": "ి గ",
    "1251": "ంబంధ",
    "1252": "చ్చిన",
    "1253": "ందర్భ",
    "1254": "ొనసాగ",
    "1255": "ినియోగ",
    "1256": "ూడ",
    "1257": "ర్థిక",
    "1258": " విజయ",
    "1259": "ేకప",
    "1260": "ార్ట",
    "1261": "ేత",
    "1262": "ాయి\n",
    "1263": "దుర",
    "1264": "ింత",
    "1265": "ర్",
    "1266": "ర్జాతీయ",
    "1267": "ర్ణ",
    "1268": "ి వి",
    "1269": "త్స",
    "1270": "ోనూ",
    "1271": "్యాచ",
    "1272": "ుగిస",
    "1273": "ంగా\n",
    "1274": "త్సర",
    "1275": "ెలిపారు ",
    "1276": "రిక",
    "1277": "రిశ",
    "1278": "్యం ",
    "1279": "ఎస",
    "1280": "ిల్ల",
    "1281": "లు\n",
    "1282": "ృష్ణ",
    "1283": "ర్గ",
    "1284": "్‌ ఇ",
    "1285": "ీ అ",
    "1286": "ర్‌ స",
    "1287": "ంగాణ",
    "1288": "యితే ",
    "1289": " నెల",
    "1290": "ా బ",
    "1291": "                        ",
    "1292": "్‌న",
    "1293": " అత",
    "1294": "ాయి.",
    "1295": " ప్రక",
    "1296": "లిస",
    "1297": "ేను ",
    "1298": "ానంలో ",
    "1299": "్యోగ",
    "1300": "ీగ",
    "1301": "్‌వ",
    "1302": "ు ఇ",
    "1303": "ని",
    "1304": "స్తున్న",
    "1305": "ి ఈ",
    "1306": "ిజ",
    "1307": "ొట్ట",
    "1308": "ిద్ధ",
    "1309": " రెండ",
    "1310": "మెరిక",
    "1311": " శ్ర",
    "1312": " దేశ",
    "1313": "ోసం ",
    "1314": " బంత",
    "1315": "ేక్ష",
    "1316": "ాగా ",
    "1317": "ుటుంబ",
    "1318": "ుంబయ",
    "1319": "్‌ హ",
    "1320": "్స్‌లో ",
    "1321": "త్వ",
    "1322": "ీబ",
    "1323": "ుమత",
    "1324": "ొప్ప",
    "1325": "ుఖ్య",
    "1326": "తర",
    "1327": "ిల్లీ ",
    "1328": "రిగ",
    "1329": "్యక్రమ",
    "1330": "ే వ",
    "1331": "000",
    "1332": "ుబడ",
    "1333": "ిద్య",
    "1334": "స్య",
    "1335": "ియన్‌ ",
    "1336": "ి\nన",
    "1337": " శాతం ",
    "1338": "కూ",
    "1339": "ిస్త",
    "1340": "ిజ",
    "1341": "ుంద",
    "1342": "ైవ",
    "1343": "న్న",
    "1344": "్కోర",
    "1345": " పాత్ర",
    "1346": " 10",
    "1347": "ర్శక",
    "1348": "ెరిగ",
    "1349": "్‌ డ",
    "1350": "ెద్ద",
    "1351": "ుక్రవారం ",
    "1352": "ుభ",
    "1353": "ాకు ",
    "1354": "ా ర",
    "1355": "ెల్లడ",
    "1356": "హార",
    "1357": "ెలిచ",
    "1358": "ాంపియన్‌",
    "1359": "ు 2",
    "1360": " రంగ",
    "1361": "ిమాన",
    "1362": "ాంగ",
    "1363": "ిరీస",
    "1364": "చ్",
    "1365": "ిర",
    "1366": " కోస",
    "1367": "ిష్క",
    "1368": "ిచ",
    "1369": "ించాడు ",
    "1370": "ల",
    "1371": "ిచ్చ",
    "1372": "-3",
    "1373": "దుప",
    "1374": "ులతో ",
    "1375": "ాథ",
    "1376": "భావ",
    "1377": "ుతో ",
    "1378": "ిస్ట",
    "1379": "ూక",
    "1380": "ుజ",
    "1381": "ా.",
    "1382": "ిక్ష",
    "1383": "డుగ",
    "1384": "ుల్లో",
    "1385": "డ",
    "1386": "ుండా ",
    "1387": "ాలతో ",
    "1388": "ేషన్‌ ",
    "1389": "తో\n",
    "1390": "ీ ర",
    "1391": "న్డ",
    "1392": "ుకున్నారు ",
    "1393": "రోన",
    "1394": "ర్‌ క",
    "1395": "   ",
    "1396": "ివర",
    "1397": "ేసింది ",
    "1398": "ిస్తూ",
    "1399": "ెర",
    "1400": "ేహ",
    "1401": "ించాల",
    "1402": "ిగ",
    "1403": "ీ ప",
    "1404": "ొడ",
    "1405": "ల్ప",
    "1406": "షిప",
    "1407": "ిని ",
    "1408": " వ్యవ",
    "1409": "్‌ చ",
    "1410": "లోని ",
    "1411": "ోహిత",
    "1412": "ొద",
    "1413": " ప్రభుత్వ",
    "1414": "రూ",
    "1415": " స",
    "1416": "ాను ",
    "1417": " మంత్ర",
    "1418": "ి నుంచ",
    "1419": "ోబ",
    "1420": "ోజుల",
    "1421": "ర్న",
    "1422": " దిల్ల",
    "1423": "ుకొ",
    "1424": "ిజిట",
    "1425": "ండల",
    "1426": "ీవ్ర",
    "1427": "ద్ర",
    "1428": "ైనా ",
    "1429": "ిద్ద",
    "1430": "న",
    "1431": " కోట్లు ",
    "1432": "న్ల",
    "1433": "ురువ",
    "1434": "నుంద",
    "1435": "న",
    "1436": "ేక్షక",
    "1437": "ి\nస",
    "1438": "క్ష",
    "1439": "ింది",
    "1440": "న్‌",
    "1441": "ుఖ",
    "1442": "ే అవకాశం ",
    "1443": " సంవత్సర",
    "1444": "ోలు ",
    "1445": "ిషయ",
    "1446": "ీని ",
    "1447": "ులోక",
    "1448": "ించే ",
    "1449": "ాలపై",
    "1450": "ర్లు ",
    "1451": "ధార",
    "1452": "ాటౌట",
    "1453": "ీఎఫ",
    "1454": "్‌\nస",
    "1455": " ఏడాద",
    "1456": "ాల్సిన",
    "1457": "ో స",
    "1458": " 21",
    "1459": "ాహుల",
    "1460": " షేర్ల",
    "1461": "లాంట",
    "1462": "్‌\nక",
    "1463": "ించడం ",
    "1464": "రవ",
    "1465": " ఏళ్ల",
    "1466": "ేదిక",
    "1467": "ప",
    "1468": "మాస",
    "1469": "ివాస",
    "1470": "ూప",
    "1471": "ర్ప",
    "1472": "ంగా",
    "1473": "ీశ",
    "1474": "ైన",
    "1475": "ాడు",
    "1476": "్‌డ",
    "1477": "ావేశ",
    "1478": " బాల",
    "1479": "యం ",
    "1480": " జర",
    "1481": "ుధవారం ",
    "1482": "ిస్తే ",
    "1483": "క్కువ",
    "1484": " నేపథ్యంలో ",
    "1485": "ాల",
    "1486": "టీవ",
    "1487": "తక",
    "1488": "ూడ",
    "1489": " హైదరాబాద",
    "1490": "ంస",
    "1491": "్‌లు ",
    "1492": "ెంచ",
    "1493": " విభాగ",
    "1494": "్ఠ",
    "1495": " కథ",
    "1496": " ప్రపంచ",
    "1497": "ండ",
    "1498": "ాఠ",
    "1499": "ంధన",
    "1500": "ాంపియన్‌షిప",
    "1501": "30",
    "1502": "మెంట",
    "1503": "పట్ట",
    "1504": "ిస్తుంద",
    "1505": "పడ్డ",
    "1506": "25",
    "1507": "ీఎస్‌ట",
    "1508": "ుక్రవారం ",
    "1509": "ంగ్లాండ",
    "1510": "్యూస్‌టుడే ",
    "1511": "ఏ",
    "1512": "ుకుంటున్న",
    "1513": "క్షిణ",
    "1514": "్రామ",
    "1515": "ుతోంది ",
    "1516": "రుగ",
    "1517": "యిర",
    "1518": "ైద్య",
    "1519": "ంగళవారం ",
    "1520": "సార",
    "1521": "లో\n",
    "1522": "ార్మ",
    "1523": "మోద",
    "1524": "ిర్మ",
    "1525": "ెంచ",
    "1526": "్పత్త",
    "1527": "ంద్ర",
    "1528": " లాభ",
    "1529": "ొన్న",
    "1530": "దిత",
    "1531": "ీన",
    "1532": "ండ్ర",
    "1533": "ెద",
    "1534": " పరుగులు ",
    "1535": "రుగ",
    "1536": "ూట",
    "1537": "ెలిసింద",
    "1538": "ీ20",
    "1539": "ెలంగాణ",
    "1540": "పర",
    "1541": "త్య",
    "1542": " ఆర",
    "1543": "కెక్క",
    "1544": " కేస",
    "1545": "ిమిత",
    "1546": " ఒ",
    "1547": "్రయత్న",
    "1548": "డాద",
    "1549": " మర",
    "1550": "్‌ ప్ర",
    "1551": "ివర",
    "1552": "ైంది ",
    "1553": "ందుకు ",
    "1554": "్‌ 5",
    "1555": "ిందిత",
    "1556": "ిష్ఠ",
    "1557": "ేపట్ట",
    "1558": "ీర్‌",
    "1559": "ి,",
    "1560": " సంగ",
    "1561": "ృంద",
    "1562": " మేర",
    "1563": "ేవల",
    "1564": "ందర్భంగా ",
    "1565": "ధికారులు ",
    "1566": "టీవల",
    "1567": "10",
    "1568": "రిస్థిత",
    "1569": "మాసిక",
    "1570": "గల",
    "1571": "ోల్ప",
    "1572": "్‌ శ",
    "1573": "ిడుదల ",
    "1574": "్ప",
    "1575": "ార్జ",
    "1576": "ని క",
    "1577": "హ్మ",
    "1578": "ప్ప",
    "1579": " ధ",
    "1580": " తెల",
    "1581": " బ్యాంక",
    "1582": "ీగా ",
    "1583": "్రవ",
    "1584": "స్వ",
    "1585": "ుగ్గ",
    "1586": "ిప్ర",
    "1587": "ోతున్న",
    "1588": "ాగ",
    "1589": "ాత",
    "1590": "ాయిక",
    "1591": "ోల",
    "1592": "ం నుంచ",
    "1593": "్రైమాసిక",
    "1594": "యట",
    "1595": "ం ర",
    "1596": "ుట్ట",
    "1597": "ోమవారం ",
    "1598": "క",
    "1599": "ాల్గ",
    "1600": "న్న",
    "1601": "ం.",
    "1602": "భ",
    "1603": "ంపెనీల",
    "1604": "ించి ",
    "1605": "ెవ",
    "1606": "వచ్చ",
    "1607": " 15",
    "1608": "ంపిక",
    "1609": "ు 3",
    "1610": "నివారం ",
    "1611": "క్షణ",
    "1612": "ి’",
    "1613": "మాన",
    "1614": "గాళ్ల",
    "1615": "శ",
    "1616": " వరకు ",
    "1617": " ఆట",
    "1618": "ండియ",
    "1619": "ురువారం ",
    "1620": "ుబాట",
    "1621": "ంచ",
    "1622": "రాజ",
    "1623": "ుడిగా ",
    "1624": "ీ బ",
    "1625": " ఒక",
    "1626": "రెస్ట",
    "1627": "ాట్లాడుతూ ‘‘",
    "1628": "ం ",
    "1629": "ు ఈ",
    "1630": "ూర్త",
    "1631": "ే.",
    "1632": "్ఫ",
    "1633": "్‌ ",
    "1634": "ేఖ",
    "1635": "ాయి\n",
    "1636": " 12",
    "1637": "ించారు.",
    "1638": "కర",
    "1639": "ిజిటల్‌ ",
    "1640": "ిక్క",
    "1641": "న్‌\n",
    "1642": "ుతోంద",
    "1643": "థానాయక",
    "1644": "ైజ",
    "1645": "ీకరణ",
    "1646": "’’ అని ",
    "1647": "ిర",
    "1648": "్రత్యేక",
    "1649": "ోధ",
    "1650": "99",
    "1651": "ం ద",
    "1652": "ోలీసులు ",
    "1653": "మయ్య",
    "1654": "ు జ",
    "1655": " మంద",
    "1656": "వ్వ",
    "1657": "ంతో\n",
    "1658": "్‌\n",
    "1659": " వికెట్ల",
    "1660": "ే ప",
    "1661": "శాల",
    "1662": "ిస్తున్నారు ",
    "1663": "గా",
    "1664": "ోర్న",
    "1665": "న్‌లో ",
    "1666": "ెంబర",
    "1667": "హిళల",
    "1668": "ించాలని ",
    "1669": "ిస్థాన",
    "1670": "ాత్రమ",
    "1671": "క్కడ",
    "1672": "ెబ",
    "1673": " ప్రత",
    "1674": " ఓవర్లలో",
    "1675": "్యాపార",
    "1676": "ియమ",
    "1677": "స్థాన",
    "1678": "ోహ్ల",
    "1679": " విల",
    "1680": "ూ.",
    "1681": "ధ్యక్ష",
    "1682": "నంతర",
    "1683": "ి 3",
    "1684": "గద",
    "1685": "ఓ",
    "1686": "ిమాన",
    "1687": "్‌ బ్యాంక",
    "1688": "ోర్డ",
    "1689": "్రామ",
    "1690": "ించారు\n",
    "1691": "ాచారం ",
    "1692": "ి 2",
    "1693": "ంటున్న",
    "1694": "మిట",
    "1695": "స్ట్రేల",
    "1696": "ౌలింగ",
    "1697": "ువ",
    "1698": "ుకూల",
    "1699": " పాట",
    "1700": " అభ",
    "1701": " అంత",
    "1702": "వాద",
    "1703": "గా\n",
    "1704": "త్పత్త",
    "1705": "దితర",
    "1706": "\nప్ర",
    "1707": "్వారా ",
    "1708": "దర్శన",
    "1709": "బుల",
    "1710": "ెలుగ",
    "1711": "ుద్ధ",
    "1712": "ద్దర",
    "1713": " ఉన్న",
    "1714": "ద్యోగ",
    "1715": "్యాద",
    "1716": "రింత",
    "1717": "్‌ ష",
    "1718": "ెండో ",
    "1719": "ూస్త",
    "1720": "ుగుర",
    "1721": "ార్కెట",
    "1722": "ండియా ",
    "1723": "ాదాప",
    "1724": "ిండీస",
    "1725": "గర",
    "1726": "ియర్‌ ",
    "1727": "\nత",
    "1728": "ెచ్చ",
    "1729": "్రపంచకప",
    "1730": "మవ",
    "1731": "ోళ",
    "1732": "ీంతో ",
    "1733": "ు\nర",
    "1734": "15",
    "1735": "ించడ",
    "1736": "్ర",
    "1737": "ాన్ని\n",
    "1738": "ర్‌-1",
    "1739": "ైర్మ",
    "1740": "ం అ",
    "1741": " బంతుల్లో",
    "1742": "ిర్యాద",
    "1743": "బీఐ",
    "1744": "ేంద్ర",
    "1745": "ాభ",
    "1746": "ైస",
    "1747": " ఆద",
    "1748": " బ్యాట",
    "1749": "యోగ",
    "1750": "్‌ (",
    "1751": " నుంచి ",
    "1752": "ెస్ట",
    "1753": "ు’",
    "1754": "ిఖ",
    "1755": "ిర్ణయ",
    "1756": "ాట",
    "1757": "ం\nక",
    "1758": "ీవిత",
    "1759": "ీష",
    "1760": "ెర",
    "1761": "ాయిల",
    "1762": "ు\nస",
    "1763": "ినట్లు ",
    "1764": "ూత",
    "1765": " తొల",
    "1766": "్యవ",
    "1767": " ముంద",
    "1768": " తేడ",
    "1769": "ోల్పోయ",
    "1770": "ెన",
    "1771": "ర్క",
    "1772": " తన",
    "1773": "ుత్త",
    "1774": "్రాక్ట",
    "1775": "ు గ",
    "1776": "ంగళూర",
    "1777": "ద",
    "1778": "ి ‘",
    "1779": "న",
    "1780": "న్నింగ్స్‌",
    "1781": "ార్చ",
    "1782": "ార",
    "1783": "ొండ",
    "1784": " స్ట",
    "1785": "ంతో",
    "1786": "్‌లోని ",
    "1787": "ా త",
    "1788": "ోట",
    "1789": "ాచార",
    "1790": "ిగత",
    "1791": "ొట్ట",
    "1792": " పోలీస",
    "1793": "న్‌ క",
    "1794": "ోచ",
    "1795": "\nద",
    "1796": " అమ",
    "1797": "ర్ధ",
    "1798": " ఈనాడు ",
    "1799": "ెంగళూర",
    "1800": "్‌ 6",
    "1801": "న్నద",
    "1802": "ిభాగ",
    "1803": "\n                        ",
    "1804": "ంతర్జాతీయ",
    "1805": "ిన్న",
    "1806": "ించేందుకు ",
    "1807": "్యూట",
    "1808": "ానికి\n",
    "1809": "ం ‘",
    "1810": "ర",
    "1811": "నం ",
    "1812": "ుప్ర",
    "1813": "నిప",
    "1814": " రోజ",
    "1815": "ొనుగ",
    "1816": "ీసీ",
    "1817": "్యాంక",
    "1818": "ారీ ",
    "1819": "ించనున్న",
    "1820": "్‌బాల",
    "1821": "దివారం ",
    "1822": "దాయ",
    "1823": "్యమ",
    "1824": "రుస",
    "1825": "్ఞ",
    "1826": "ే ఈ",
    "1827": " కార్యక్రమ",
    "1828": "ళాశ",
    "1829": "ైర్మ",
    "1830": "ాలర్ల",
    "1831": "40",
    "1832": "లోనే ",
    "1833": " శాఖ",
    "1834": "ాంట్రాక్ట",
    "1835": "ెన్న",
    "1836": "ోత్స",
    "1837": "ి\nమ",
    "1838": "చ్చ",
    "1839": "ెచ",
    "1840": " గుర",
    "1841": "ిప్రాయ",
    "1842": "ల",
    "1843": "35",
    "1844": " రాజ",
    "1845": "్‌ ఆఫ",
    "1846": "ీఎల",
    "1847": "్థాన",
    "1848": "19",
    "1849": " విధ",
    "1850": " వ్యక్త",
    "1851": "వసర",
    "1852": "ట్ట",
    "1853": "ీడియ",
    "1854": "ుకున్నాడు ",
    "1855": "న",
    "1856": "ిందని ",
    "1857": "ల",
    "1858": "లోచ",
    "1859": "ాధ",
    "1860": "ంలోక",
    "1861": "ుపై",
    "1862": "రల",
    "1863": "ని",
    "1864": "ెప్టెన్‌ ",
    "1865": "×4",
    "1866": "ాడు\n",
    "1867": "నూ",
    "1868": "ుకు\n",
    "1869": "ిమిష",
    "1870": "స్క",
    "1871": "ోళన",
    "1872": " దర్శక",
    "1873": "ారు ",
    "1874": "్రిత",
    "1875": "ోట్ల",
    "1876": "మైంది ",
    "1877": " నిర్మ",
    "1878": " ఘటన",
    "1879": "ర్‌ ర",
    "1880": "ైరెక్ట",
    "1881": "ంఘ",
    "1882": "వర",
    "1883": "ాక్స",
    "1884": "్‌గా ",
    "1885": "ాల్ప",
    "1886": "ర్త",
    "1887": "ప్పటిక",
    "1888": "ష",
    "1889": "దిల",
    "1890": " అయ",
    "1891": "ైదరాబాద్‌ ",
    "1892": "్రమాద",
    "1893": "ేకపోయ",
    "1894": "ి ఫ",
    "1895": "ాణిజ",
    "1896": "ేర్కొన్న",
    "1897": "45",
    "1898": "సాద",
    "1899": "ాయ",
    "1900": "ు ఆ",
    "1901": "రంభ",
    "1902": "ంకట",
    "1903": "ుగ్గుర",
    "1904": "ించింది.",
    "1905": "ులపై",
    "1906": "ా చ",
    "1907": "రెడ్డ",
    "1908": "* ",
    "1909": "లింప",
    "1910": " రాష్ట్ర",
    "1911": "ోసార",
    "1912": "ారు క",
    "1913": "షధ",
    "1914": "బ్ల",
    "1915": " తర",
    "1916": " నాటౌట",
    "1917": "ట",
    "1918": "్వి",
    "1919": " మొత్త",
    "1920": "ాకార",
    "1921": "ిబంధన",
    "1922": " కాల",
    "1923": " ప్రాంత",
    "1924": "ీణ",
    "1925": "ాటక",
    "1926": "లా ",
    "1927": "్రేక్షక",
    "1928": "ెట్టుబడ",
    "1929": "ుప్రీ",
    "1930": "త్మ",
    "1931": "న్స",
    "1932": " మూడ",
    "1933": "ని అ",
    "1934": "దార",
    "1935": "ాణిజ్య",
    "1936": "ర్‌\n",
    "1937": "ళాశాల",
    "1938": " ప్రయ",
    "1939": "ప్రదేశ",
    "1940": "ుపత్ర",
    "1941": "ోపాట",
    "1942": "ప్రిల",
    "1943": "్‌ య",
    "1944": "ఫ",
    "1945": "ేర్ల",
    "1946": "ిస్తోంద",
    "1947": "ోగ్య",
    "1948": "ిథ",
    "1949": "్‌మ",
    "1950": "ోన్‌ ",
    "1951": "ి\nర",
    "1952": "క",
    "1953": "దల",
    "1954": "ంపిక",
    "1955": "ిదేశ",
    "1956": "ాస్ట",
    "1957": "క్ట",
    "1958": "ేని ",
    "1959": "ద్రత",
    "1960": "ింగిల",
    "1961": "18",
    "1962": "్రూప",
    "1963": "్ట",
    "1964": "ిస్తోంది ",
    "1965": "ే అ",
    "1966": "నంద",
    "1967": "ువన",
    "1968": "ూపొంద",
    "1969": "ందోళన",
    "1970": "ీ20",
    "1971": "ెరకెక్క",
    "1972": "కు చేర",
    "1973": "గ్గర",
    "1974": "డ్జ",
    "1975": "ంత",
    "1976": "ీఈ",
    "1977": "ికార్డ",
    "1978": "ేశాడు ",
    "1979": "ం చేయ",
    "1980": "ుంచ",
    "1981": "్రయాణ",
    "1982": " పరిస్థిత",
    "1983": "ురుష",
    "1984": " విద్య",
    "1985": " ఉద",
    "1986": "ి వచ్చ",
    "1987": "ాలు స",
    "1988": "ంపెనీ ",
    "1989": " కల",
    "1990": "ారణంగా ",
    "1991": "్‌ఫ",
    "1992": "స్స",
    "1993": "త్త",
    "1994": "ీనివాస",
    "1995": "ి ల",
    "1996": "వ",
    "1997": "ారు ఈ",
    "1998": "ాఫ్రిక",
    "1999": "లింపిక",
    "2000": "ావిస్త",
    "2001": "ి హ",
    "2002": " తేడాతో ",
    "2003": "క్షిణాఫ్రిక",
    "2004": "ే సమ",
    "2005": "60",
    "2006": " ఇంట",
    "2007": "్రియ",
    "2008": "న్నింగ్స్‌ ",
    "2009": "తన",
    "2010": " వాహన",
    "2011": "ాన్స",
    "2012": "ాయిద",
    "2013": "-4",
    "2014": "ెన్సెక",
    "2015": "ాస్క",
    "2016": "ౌర",
    "2017": "ంగ్లాండ",
    "2018": "గ",
    "2019": " ఇద",
    "2020": "చ్చిన",
    "2021": "యార",
    "2022": "ాఠశాల",
    "2023": "ిబ్బ",
    "2024": "లతో ",
    "2025": "ెగ్గ",
    "2026": "ార్ప",
    "2027": "ప్పంద",
    "2028": "ీసుకున్న",
    "2029": "ెత్త",
    "2030": "్‌జ",
    "2031": "75",
    "2032": " ధర",
    "2033": "ికార",
    "2034": "్‌ఈ",
    "2035": " 2018",
    "2036": "హ్మద",
    "2037": "ెగ",
    "2038": "ివార",
    "2039": "ందుక",
    "2040": "టీవల",
    "2041": "ేతిక",
    "2042": "్‌గ",
    "2043": "ా ద",
    "2044": "ి శ",
    "2045": "రావ",
    "2046": "ుధవారం ",
    "2047": "ద",
    "2048": "ెంచర",
    "2049": " అద",
    "2050": " నష్ట",
    "2051": "ంగార",
    "2052": "ెలియ",
    "2053": " కేంద్ర",
    "2054": "ిర్మాత",
    "2055": "ర్‌ మ",
    "2056": "ెన్నై",
    "2057": "ించినట్లు ",
    "2058": "ీమ",
    "2059": "్‌మెంట",
    "2060": "ు నమోద",
    "2061": "ట్లు\n",
    "2062": "\nగ",
    "2063": "ో ర",
    "2064": "ింధ",
    "2065": "ాంకేతిక",
    "2066": "లాంట",
    "2067": "ులో",
    "2068": "చ్చే",
    "2069": "12",
    "2070": "్రీడాకార",
    "2071": "ించడంతో ",
    "2072": "మ్మక",
    "2073": "ాల్ని ",
    "2074": "ింది ఈ",
    "2075": "ినిమా ",
    "2076": "ానుకూల",
    "2077": "ద్భ",
    "2078": "ా\nక",
    "2079": "ేణ",
    "2080": "ు\n    ",
    "2081": "భావం ",
    "2082": " 18",
    "2083": "క్స్‌",
    "2084": "ద్భుత",
    "2085": "ైంద",
    "2086": "ర్‌బీఐ",
    "2087": "ూ3",
    "2088": "ా’",
    "2089": " గంట",
    "2090": "ైవేట",
    "2091": " అంద",
    "2092": "ు చేయ",
    "2093": "్పంద",
    "2094": "ాల్సి ",
    "2095": "ిలువ",
    "2096": "ోర",
    "2097": "శ్న",
    "2098": "శ్మ",
    "2099": "ికిత",
    "2100": "ందని ",
    "2101": "14",
    "2102": "70",
    "2103": "ాలుగ",
    "2104": "మన",
    "2105": "ఈ",
    "2106": "ాదన",
    "2107": "రకు ",
    "2108": "్‌.",
    "2109": "ార్య",
    "2110": "ీసుకోవ",
    "2111": "ోస్ట",
    "2112": "ం\nస",
    "2113": "ెన్న",
    "2114": " ముగిస",
    "2115": " కొత్త",
    "2116": " విమాన",
    "2117": " జట్ట",
    "2118": "ికెట్ల",
    "2119": "\nశ",
    "2120": "్రత్యర్థ",
    "2121": "రిమిత",
    "2122": "ేస్త",
    "2123": " వృద్ధ",
    "2124": "ంధ్ర",
    "2125": "ాధించింది ",
    "2126": "\nజ",
    "2127": "ావిస్త",
    "2128": "ాకిస్థాన",
    "2129": " ఆస",
    "2130": "ావ",
    "2131": "తో",
    "2132": "ార్క",
    "2133": " విడ",
    "2134": "ిర్వహ",
    "2135": "ిసార",
    "2136": "మని ",
    "2137": "ూడ",
    "2138": "్‌ నుంచ",
    "2139": "ుచేస",
    "2140": "పూర",
    "2141": "ాన్‌ ",
    "2142": "హాయ",
    "2143": "’ అని ",
    "2144": "ర్యాప్త",
    "2145": " టోర్న",
    "2146": "ీర",
    "2147": "్రద",
    "2148": "ర్‌ ",
    "2149": "ి డ",
    "2150": "తను ",
    "2151": "ాత్మ",
    "2152": "్యక్త",
    "2153": "ెమీస",
    "2154": "హ",
    "2155": "వంత",
    "2156": "ాత్రం ",
    "2157": "ీల్లో ",
    "2158": " సంగతి ",
    "2159": "ినా ",
    "2160": "ిన",
    "2161": "ాజర",
    "2162": "ాక్ష",
    "2163": "్వర్య",
    "2164": "ట",
    "2165": " 50",
    "2166": "వేశ",
    "2167": "-6",
    "2168": "న్నాయి ",
    "2169": "ార్",
    "2170": "ీఆర్‌",
    "2171": " ఆయన",
    "2172": " ప్రపంచకప",
    "2173": " స్థాయ",
    "2174": " వివర",
    "2175": " నిర్ణయ",
    "2176": "-19",
    "2177": "ాధాన",
    "2178": " ట్ర",
    "2179": "ేడియ",
    "2180": " సమయంలో ",
    "2181": "ొదట",
    "2182": "ుపెట్ట",
    "2183": "క్ష్య",
    "2184": "ీకరించ",
    "2185": "ినియోగ",
    "2186": "ార్త",
    "2187": "ింది క",
    "2188": "ఫ",
    "2189": "ి సమ",
    "2190": " క్రికెట",
    "2191": " రుణ",
    "2192": " సినిమా ",
    "2193": "ూమ",
    "2194": "్‌ఐ",
    "2195": "ొత్త",
    "2196": "హెచ",
    "2197": "ుడు\n",
    "2198": "్‌ టోర్న",
    "2199": "ైరస",
    "2200": " వ్యవస్థ",
    "2201": "ాబట్ట",
    "2202": "రిశీల",
    "2203": "ూ2",
    "2204": "స్వామ",
    "2205": "తర",
    "2206": "ర్‌గా ",
    "2207": "ులు స",
    "2208": "ీవ్ర",
    "2209": "యిర",
    "2210": "ిశ్వ",
    "2211": "లోక",
    "2212": "ందులో ",
    "2213": "11",
    "2214": "కు 1",
    "2215": " 19",
    "2216": " వాట",
    "2217": "ిఫ్ట",
    "2218": "్యాలయ",
    "2219": "ంగళవారం ",
    "2220": "\n* ",
    "2221": "్‌రెడ్డ",
    "2222": "రగ",
    "2223": "ింది\n        _      ",
    "2224": "క్కడ",
    "2225": "స్టిస",
    "2226": "ేధ",
    "2227": "ొనసాగ",
    "2228": "ి అన",
    "2229": "ిక్రయ",
    "2230": "ోఫ",
    "2231": "ాగ్ర",
    "2232": "్వార్ట",
    "2233": "వర్ల",
    "2234": "ళ్త",
    "2235": "ెద్ద",
    "2236": "కే ",
    "2237": "ట్ర",
    "2238": "ం’",
    "2239": " అధికార",
    "2240": "న్‌ స",
    "2241": " మ్యాచ్‌లో ",
    "2242": "స్త",
    "2243": "టంతో ",
    "2244": "్యాక",
    "2245": "ులు క",
    "2246": "ర్శకుడు ",
    "2247": "త్తిడ",
    "2248": "ివృద్ధ",
    "2249": "ుల స",
    "2250": "ెన్‌",
    "2251": "ాంస",
    "2252": " 13",
    "2253": "ాలు క",
    "2254": "80",
    "2255": "కు",
    "2256": "ుపర",
    "2257": "ైదరాబాద్‌లో ",
    "2258": "ీసీ ",
    "2259": "ి 4",
    "2260": " ఆర్థిక సంవత్సర",
    "2261": "ధిక",
    "2262": "ెజ",
    "2263": "్రజ",
    "2264": "ా ",
    "2265": "ముర",
    "2266": "\nఆ",
    "2267": "ులో\n",
    "2268": "ాపై",
    "2269": "ికిత్స",
    "2270": "సాయ",
    "2271": "ౌలర్ల",
    "2272": "్రస్తుతం ",
    "2273": "ొమ్మ",
    "2274": "ిత్త",
    "2275": "ైడ",
    "2276": "ు చ",
    "2277": " మార్క",
    "2278": "కుండ",
    "2279": " 16",
    "2280": "ే ర",
    "2281": " 0",
    "2282": "ల్‌ స",
    "2283": "ప్త",
    "2284": "ెలుస",
    "2285": " కూడా ",
    "2286": "పత",
    "2287": "ేద",
    "2288": " పెట్ట",
    "2289": " ప్రధాన",
    "2290": "ెప్పారు ",
    "2291": "ంబంధించిన",
    "2292": "క్ర",
    "2293": "ేషన",
    "2294": "్యూజ",
    "2295": "ిద్యార్థ",
    "2296": "దయ",
    "2297": "్యదర్శ",
    "2298": "ార్జ",
    "2299": "ధిక్య",
    "2300": "ృత",
    "2301": " కోసం ",
    "2302": "మిద",
    "2303": " కుమార",
    "2304": " విలువ",
    "2305": "్‌కుమార",
    "2306": " యువ",
    "2307": "ట్న",
    "2308": "ుకొని ",
    "2309": " 14",
    "2310": " మన",
    "2311": "న",
    "2312": "ినిధ",
    "2313": "ి\n        _      ",
    "2314": "ించింది\n",
    "2315": "ిపోత",
    "2316": "ిరిగ",
    "2317": " చేస",
    "2318": " అవసర",
    "2319": "ంప",
    "2320": " ‘మ",
    "2321": "ప్పుడు ",
    "2322": "ేతిలో ",
    "2323": "పెన",
    "2324": "్యాఖ్య",
    "2325": "ాన",
    "2326": "ేనేజ",
    "2327": "ాతీయ",
    "2328": "డ",
    "2329": "ుప్రీంక",
    "2330": "ావడం ",
    "2331": "ంక",
    "2332": "ం ల",
    "2333": "ిచారణ",
    "2334": " పరిశ",
    "2335": " స్వ",
    "2336": "ిలియన్‌ ",
    "2337": "ుగ",
    "2338": "ంలోనే ",
    "2339": "్యాట్స్‌",
    "2340": "్థానిక",
    "2341": "కు చెందిన",
    "2342": "ాంబ",
    "2343": "ంలో క",
    "2344": "ర్య",
    "2345": "ుల్ని ",
    "2346": "ాజర",
    "2347": "ోవైప",
    "2348": "ేయడం ",
    "2349": " 17",
    "2350": "13",
    "2351": " ఫలిత",
    "2352": "ెలిక",
    "2353": " పద",
    "2354": "ంలో స",
    "2355": "లాప",
    "2356": "ాధికార",
    "2357": "ి వర",
    "2358": "ుప్రీంకోర్ట",
    "2359": " ప్రత్య",
    "2360": "ుప్ప",
    "2361": "లిత",
    "2362": "ర్‌లో ",
    "2363": "ు\n   ",
    "2364": "ెల",
    "2365": "ూశ",
    "2366": " సంగతి తెలిసింద",
    "2367": "ేలా ",
    "2368": "ాధీన",
    "2369": "క్రమ",
    "2370": "×6",
    "2371": "లపై",
    "2372": "దుర్క",
    "2373": " దిల్లీ ",
    "2374": "\nసమ",
    "2375": "ై",
    "2376": "్యూ",
    "2377": "ర్పాట",
    "2378": "ోవడంతో ",
    "2379": " 2019",
    "2380": "తో స",
    "2381": "ుకోవాల",
    "2382": "దుపర్ల",
    "2383": "ౌక",
    "2384": "ేసిన",
    "2385": "ివేదిక",
    "2386": "లింపిక",
    "2387": " విడుదల",
    "2388": "్‌ కుమార",
    "2389": "డిన",
    "2390": " ప్రమ",
    "2391": "ైట",
    "2392": "వే",
    "2393": "వ్యాప్త",
    "2394": "గొట్ట",
    "2395": "ాత్ర",
    "2396": "ాణ",
    "2397": "మూర్త",
    "2398": "\nచ",
    "2399": "కు స",
    "2400": "ోలిస్తే ",
    "2401": "ొప్పున",
    "2402": "ు నెల",
    "2403": "శ్వ",
    "2404": "ి మర",
    "2405": "ెంట",
    "2406": "ిక్షణ",
    "2407": "్‌\nమ",
    "2408": "ం ఆ",
    "2409": "ద్దత",
    "2410": "లిస",
    "2411": "ిగిల",
    "2412": "ాజిక",
    "2413": "ల్లో",
    "2414": "్‌\nర",
    "2415": " చిన్న",
    "2416": "17",
    "2417": "ంగా ఉన్న",
    "2418": "ు సమ",
    "2419": "త్పత్త",
    "2420": "ిప్ప",
    "2421": "ు\n  ",
    "2422": "ివేశ",
    "2423": " ఖ",
    "2424": "లహ",
    "2425": "ోట",
    "2426": "గ్రవాద",
    "2427": " తర్వాత",
    "2428": "ెలర",
    "2429": " దశ",
    "2430": "రిశ్రమ",
    "2431": "్‌ద",
    "2432": "స",
    "2433": "లైన",
    "2434": "ొంత",
    "2435": "ానికి చెందిన",
    "2436": "ాలేద",
    "2437": "ంలోన",
    "2438": "ీఎస్‌ట",
    "2439": "ుమాన",
    "2440": "ిటిష",
    "2441": "24",
    "2442": "ేశీయ",
    "2443": "రు ",
    "2444": "నాడు డిజిటల్‌ ",
    "2445": "ి తీసుక",
    "2446": "ెల్లించ",
    "2447": "ంచ",
    "2448": "ాయి క",
    "2449": "ెబ్బ",
    "2450": "ం వహ",
    "2451": "ికి\n",
    "2452": "ాటికి ",
    "2453": "ుతుందని ",
    "2454": "్రవ్య",
    "2455": "ిహ",
    "2456": "16",
    "2457": "ెయింట",
    "2458": "ాయ",
    "2459": "ామ",
    "2460": "ందుబాట",
    "2461": "ూసుక",
    "2462": "్రభుత్వం ",
    "2463": "కుండా ",
    "2464": "దేశ",
    "2465": "్‌ జట్ట",
    "2466": "ో క",
    "2467": "ం లేద",
    "2468": "ర్‌ న",
    "2469": "్యకలాప",
    "2470": " ఆమె",
    "2471": " పెర",
    "2472": "ు చేశ",
    "2473": "ల్ల",
    "2474": "్లేష",
    "2475": "ాజ",
    "2476": "ి వెళ్ల",
    "2477": "ాంపియన్‌షిప్‌లో ",
    "2478": " ఆదాయ",
    "2479": "ాదాప",
    "2480": "యిన",
    "2481": "శ్ర",
    "2482": " అంశ",
    "2483": "్‌ అన",
    "2484": "ొట",
    "2485": "్స్‌\n",
    "2486": "ెల",
    "2487": "ేర్కొన్నారు ",
    "2488": "ియంత్ర",
    "2489": "ిలయన",
    "2490": "ేల",
    "2491": "ట",
    "2492": "్‌స్ట",
    "2493": "ిరిగ",
    "2494": "ిలాండ",
    "2495": "ెలిపింది ",
    "2496": "ారు ‘‘",
    "2497": "వర్‌",
    "2498": " ఎన్‌",
    "2499": " చర్య",
    "2500": "ధ్వర్య",
    "2501": " ఎస",
    "2502": "్‌\nన",
    "2503": "ైబ",
    "2504": "ిద్ధ",
    "2505": "ింగ్‌ స",
    "2506": "ుకోవచ్చ",
    "2507": "ే బ",
    "2508": "రఫ",
    "2509": " పడ",
    "2510": "ుచ్చ",
    "2511": "ిల్లీ",
    "2512": "్యాన",
    "2513": "ల్ని ",
    "2514": "ర్",
    "2515": "ారాయ",
    "2516": "మంత్ర",
    "2517": "థానాయిక",
    "2518": " 25",
    "2519": "ం సాధించ",
    "2520": "ప్రిల",
    "2521": "ిర్యాద",
    "2522": "కార",
    "2523": "ాత్మక",
    "2524": " సమావేశ",
    "2525": "ర్ణాటక",
    "2526": "-5",
    "2527": "ారణ",
    "2528": "్‌ఎఫ",
    "2529": "హత్య",
    "2530": "ాదవ",
    "2531": "ం\nన",
    "2532": "ుక్క",
    "2533": "ర్పాటు ",
    "2534": "ా జ",
    "2535": "ురించ",
    "2536": "్ల",
    "2537": "ొదట",
    "2538": "మైంద",
    "2539": "బోతున్న",
    "2540": "22",
    "2541": " చిత్ర",
    "2542": " సంఖ్య",
    "2543": "ు 4",
    "2544": "ి జట్ట",
    "2545": "ివ",
    "2546": "00 కోట్ల",
    "2547": "నంతరం ",
    "2548": "లౌట",
    "2549": "పయోగ",
    "2550": "స్ప",
    "2551": "ుందని ",
    "2552": "స్ట్రేల",
    "2553": " చేయ",
    "2554": "ంలో మ",
    "2555": "ోజన",
    "2556": "య",
    "2557": "్వాల",
    "2558": " చిత్రం ‘",
    "2559": "ుతున్నారు ",
    "2560": " తమ",
    "2561": " గ్రామ",
    "2562": "పోయ",
    "2563": "ప",
    "2564": "్థానంలో ",
    "2565": "త్మహత్య",
    "2566": "ీట",
    "2567": "ు చేసిన",
    "2568": "ంస్థ",
    "2569": "్స్‌ స",
    "2570": "ాల్సింద",
    "2571": "రెస్ట",
    "2572": "్‌లో\n",
    "2573": "్యూజిలాండ",
    "2574": "ా\nన",
    "2575": "ెహ",
    "2576": "ుకోల",
    "2577": "న్స్‌ ",
    "2578": "-21",
    "2579": "ించారు\n",
    "2580": "ావడంతో ",
    "2581": "ాధించిన",
    "2582": "మిష",
    "2583": "ాలక",
    "2584": " 30",
    "2585": "23",
    "2586": "ెరుగ",
    "2587": "ి\nప",
    "2588": "ూ5",
    "2589": "\nరూ",
    "2590": "ెలరేగ",
    "2591": "ీర్‌ ",
    "2592": "్రాడ",
    "2593": " సూచ",
    "2594": "ుభవ",
    "2595": "’’ అన్నారు ",
    "2596": "65",
    "2597": "ీలంక",
    "2598": "ంతోష",
    "2599": "ీఎఫ్‌స",
    "2600": "ీ’",
    "2601": "చార",
    "2602": "‘‘",
    "2603": "డ్జెట",
    "2604": "ంక్ష",
    "2605": "ితంగా ",
    "2606": "ేశ్వ",
    "2607": "ి చెంద",
    "2608": "ే ద",
    "2609": "ండర్‌-1",
    "2610": "డుగ",
    "2611": "దర",
    "2612": "ర్వాత",
    "2613": "ుంబయ",
    "2614": "ింది ",
    "2615": "ు ప్ర",
    "2616": "్యాటింగ",
    "2617": "ను స",
    "2618": " కేజ",
    "2619": " పోర",
    "2620": "ి రెండ",
    "2621": "ీ",
    "2622": "ిని క",
    "2623": " అమెరిక",
    "2624": "ేస్తూ",
    "2625": "ామాజిక",
    "2626": " ఎన్న",
    "2627": "ి-",
    "2628": "త్తాచ",
    "2629": "ించుకున్న",
    "2630": "కుమ",
    "2631": "్‌ 7",
    "2632": "న్‌",
    "2633": "రోవైప",
    "2634": "యస",
    "2635": "ప",
    "2636": "ుండగా ",
    "2637": "నుమత",
    "2638": "ీన్‌ ",
    "2639": "ైర్మన్‌ ",
    "2640": "ిసెంబర",
    "2641": "ి మ్యాచ",
    "2642": " సభ్య",
    "2643": "త్తాచాట",
    "2644": "ే ",
    "2645": "ార్హ",
    "2646": "ం చేశ",
    "2647": " అంచన",
    "2648": "ి జిల్ల",
    "2649": "ోళ్ల",
    "2650": "ీకాంత",
    "2651": "లాంట",
    "2652": "ం\n",
    "2653": "   \"",
    "2654": "38",
    "2655": "ీగ",
    "2656": "ర్‌ బ",
    "2657": "ీసీఐ",
    "2658": " నట",
    "2659": "ం\n    ",
    "2660": "ార్ప",
    "2661": "్థిర",
    "2662": "ార్పొర",
    "2663": " సమస్య",
    "2664": "బ్బంద",
    "2665": " విశ",
    "2666": "మాచారం ",
    "2667": "ోమవారం ",
    "2668": "ాగంగా ",
    "2669": "\nచిత్ర",
    "2670": "ంప్రద",
    "2671": "ైరెక్ట",
    "2672": "ందుకు ",
    "2673": "ొనుగోలు ",
    "2674": "’’న్నారు ",
    "2675": "రీక్ష",
    "2676": "ందుక",
    "2677": "ూర",
    "2678": "ెబ",
    "2679": "యట",
    "2680": " వద్ద ముగిస",
    "2681": "ిగ్గ",
    "2682": "ిని అ",
    "2683": "బ్బ",
    "2684": "ాత్రమే ",
    "2685": " పన్న",
    "2686": "ిని\n",
    "2687": "ార్యక్రమ",
    "2688": "రిష్ఠ",
    "2689": "లక్ష",
    "2690": "ానని ",
    "2691": "కు క",
    "2692": "ొద్ద",
    "2693": "్నేహ",
    "2694": "ర్వీస",
    "2695": "స",
    "2696": "చిన",
    "2697": "మ",
    "2698": "ాగస్వామ",
    "2699": "ులై",
    "2700": "ఠ",
    "2701": "ైకోర్ట",
    "2702": "ించాయి ",
    "2703": "్వార్టర్స",
    "2704": "ప్ప",
    "2705": "ఎల",
    "2706": "ాలా ",
    "2707": "్రతిప",
    "2708": "ంజిన",
    "2709": "సక్త",
    "2710": "\n‘‘",
    "2711": "ేషన్‌",
    "2712": "ూజ",
    "2713": "ాష్ట్ర",
    "2714": "ైల్‌ ",
    "2715": "ోల్‌క",
    "2716": "్రముఖ",
    "2717": "్రీనివాస",
    "2718": "తమ",
    "2719": "ువల్ల",
    "2720": "ేరు ",
    "2721": "ర్‌ ప",
    "2722": "ాలోని ",
    "2723": "టగాళ్ల",
    "2724": "్‌:",
    "2725": "ారాయణ",
    "2726": "ిలిచ",
    "2727": "ు మ్యాచ",
    "2728": " నిమిష",
    "2729": "ధ్యక్షుడు ",
    "2730": "వాల",
    "2731": "లోచన",
    "2732": "ాడ్మ",
    "2733": "ాడ్మింట",
    "2734": "ంతో ",
    "2735": " సమయ",
    "2736": "ే\nక",
    "2737": "ీకర",
    "2738": "ీఎల్‌ ",
    "2739": "వారం\n",
    "2740": "దే ",
    "2741": "్‌కు చెందిన",
    "2742": "మనార్హ",
    "2743": "ొనుగ",
    "2744": " గెలిచ",
    "2745": "ించడానికి ",
    "2746": "ళ్లీ ",
    "2747": " బాధ",
    "2748": "ెంగళూర",
    "2749": "పాట",
    "2750": "్పష్ట",
    "2751": "థక",
    "2752": "్‌ చేస",
    "2753": "ప్పట",
    "2754": "ి ఒక",
    "2755": "    \"",
    "2756": "మ్మ",
    "2757": "క్కువ",
    "2758": "ేయాల",
    "2759": "ూన",
    "2760": "ిందిత",
    "2761": " న్యాయ",
    "2762": "న్డ",
    "2763": "ంపెనీలు ",
    "2764": "ఆర్‌",
    "2765": " ‘స",
    "2766": "ైద్య",
    "2767": "్టేడియ",
    "2768": " మంచ",
    "2769": "ెలుస్త",
    "2770": "ు ల",
    "2771": "న్య",
    "2772": "ంగా ఉండ",
    "2773": "టమ",
    "2774": "ూబ",
    "2775": "ాల్గొన్న",
    "2776": " గత",
    "2777": "నప",
    "2778": "ి నిర్మ",
    "2779": "ా సంస్థ",
    "2780": "్మిత",
    "2781": "ు చేశారు ",
    "2782": "హర",
    "2783": "క",
    "2784": " దాడ",
    "2785": "ి చేస",
    "2786": "ే ఆ",
    "2787": " మేరకు ",
    "2788": "ో మ",
    "2789": "లో స",
    "2790": "లా ",
    "2791": "ాబిత",
    "2792": "ష్ట",
    "2793": "ాడు క",
    "2794": "ులోని ",
    "2795": " కన",
    "2796": "ంగాల",
    "2797": "రోనా వ",
    "2798": "్‌\nప",
    "2799": "్‌ఎస",
    "2800": "ింగ్‌ క",
    "2801": " చె",
    "2802": "-7",
    "2803": "లక",
    "2804": "ఎన్‌",
    "2805": "ాఖలు ",
    "2806": "ావిస్తున్న",
    "2807": "ోల్‌కత",
    "2808": "్‌బీఐ",
    "2809": "ాలర్ల",
    "2810": "ాహుల",
    "2811": " హెచ",
    "2812": " 2017",
    "2813": "ోవడం ",
    "2814": "90",
    "2815": "న్నివేశ",
    "2816": "ీన్‌",
    "2817": "ంచన",
    "2818": "రుసగా ",
    "2819": "ాళ్ల",
    "2820": "ుగా\n",
    "2821": "ాశ్రయ",
    "2822": "ానున్న",
    "2823": "య్యాయి ",
    "2824": "ూ4",
    "2825": "ాజీ ",
    "2826": "్‌ సమ",
    "2827": " రాణ",
    "2828": "ుకోవడం ",
    "2829": " 24",
    "2830": "ాట్లాడ",
    "2831": "్‌లో స",
    "2832": " భార",
    "2833": "లు క",
    "2834": "ి రోజ",
    "2835": "ధికార",
    "2836": "ాలిక",
    "2837": "్వర",
    "2838": "ిబ్ర",
    "2839": " 22",
    "2840": " 21-1",
    "2841": "రుగుతున్న",
    "2842": "ిక్రయ",
    "2843": " పట్ట",
    "2844": "ెస్ట",
    "2845": "ెయిల",
    "2846": "ేను ",
    "2847": "ీళ్ల",
    "2848": "్‌ 0",
    "2849": "85",
    "2850": "రిత్ర",
    "2851": "నంద",
    "2852": "ాదేవ",
    "2853": "కులు ",
    "2854": "ికెట్లు ",
    "2855": " సంఘ",
    "2856": "ి భ",
    "2857": "ించలేద",
    "2858": "ేలో ",
    "2859": "ీవుడ",
    "2860": "ాహన",
    "2861": "ం,",
    "2862": " న్యూస్‌టుడే ",
    "2863": " ఈ చిత్ర",
    "2864": " ప్రదర్శన",
    "2865": " మెర",
    "2866": "ర్‌ను ",
    "2867": "టం ",
    "2868": " -",
    "2869": "ెంకట",
    "2870": "కుముంద",
    "2871": "ాయుడు ",
    "2872": "్స్‌ క",
    "2873": "ా,",
    "2874": "36",
    "2875": "ు శ",
    "2876": "్‌ల్లో ",
    "2877": " స్థిర",
    "2878": "ొదల",
    "2879": "ంగీత",
    "2880": "ేబ",
    "2881": " జిల్ల",
    "2882": " కింద",
    "2883": "     \"",
    "2884": "ప్పుడూ",
    "2885": "ులుగా ",
    "2886": " తేద",
    "2887": "కట్ట",
    "2888": "ేట్ల",
    "2889": "ివిధ",
    "2890": "లుగుర",
    "2891": "డిప",
    "2892": "ి వస్త",
    "2893": "ు\nమ",
    "2894": "్ర",
    "2895": "ీమ్‌",
    "2896": "న",
    "2897": " వచ్చ",
    "2898": "డమ",
    "2899": "ినీ ",
    "2900": "లేకపోయ",
    "2901": "ీసుకుంట",
    "2902": "ట",
    "2903": "ొంతం చేస",
    "2904": "21",
    "2905": " ఏడాద",
    "2906": "ించవచ్చ",
    "2907": "ీతో ",
    "2908": "సుపత్ర",
    "2909": "ిశ్లేష",
    "2910": "ప్పంద",
    "2911": "ర్వాల",
    "2912": "ెట్లో ",
    "2913": "ిలోక",
    "2914": "ొక్క",
    "2915": "ిలో",
    "2916": "గ్రవాద",
    "2917": "ి 5",
    "2918": "పుర",
    "2919": "ిరేక",
    "2920": "ాడని ",
    "2921": "ద్దేశ",
    "2922": "ేకర",
    "2923": "ం గ",
    "2924": "ుట్‌బాల",
    "2925": "ోపణ",
    "2926": "యిన",
    "2927": "ద",
    "2928": "ైనల్లో ",
    "2929": "ీఈఓ",
    "2930": "ెఫ",
    "2931": "ూచ",
    "2932": "ిశేష",
    "2933": "ాజెక్ట",
    "2934": "బడ్డ",
    "2935": "ిధాన",
    "2936": " విజ",
    "2937": "ుణ",
    "2938": "ైగా ",
    "2939": "ీసుకెళ్ల",
    "2940": " కుటుంబ",
    "2941": "కు మ",
    "2942": "లిగ",
    "2943": "ిమెంట",
    "2944": "-క",
    "2945": " 200",
    "2946": "ిమాండ",
    "2947": "హ",
    "2948": "37",
    "2949": "ామర్థ",
    "2950": " శాతానికి ",
    "2951": "్పష్ట",
    "2952": " పేర",
    "2953": "ౌలింగ్‌ ",
    "2954": "క్క",
    "2955": " నిర్వహ",
    "2956": "95",
    "2957": "ావరణ",
    "2958": " ప్రకటన",
    "2959": "ిన స",
    "2960": "ృత్వ",
    "2961": "్రేమ",
    "2962": "ుద్ద",
    "2963": "ైన",
    "2964": "ీఎస్‌ఈ",
    "2965": "సన",
    "2966": "నాడు హైదరాబాద",
    "2967": "సిడ",
    "2968": " 40",
    "2969": "ఖర",
    "2970": "ీఫ",
    "2971": "ల",
    "2972": " ఇద్దర",
    "2973": "భిమాన",
    "2974": " ప్రస్తుత",
    "2975": "ిలయన్స్‌ ",
    "2976": "ిపుణ",
    "2977": "ిజేత",
    "2978": "లో క",
    "2979": "ా అన",
    "2980": "ింగ్‌\n",
    "2981": "28",
    "2982": "ీసీసీఐ",
    "2983": "గస్ట",
    "2984": "ంబంధించ",
    "2985": "్తె",
    "2986": "టువ",
    "2987": "్‌ మ్యాచ",
    "2988": "్రాంత",
    "2989": " మహ",
    "2990": "ందున",
    "2991": "యితే ",
    "2992": "ిబ్రవర",
    "2993": "గర్‌",
    "2994": "్యయ",
    "2995": " శాతం వ",
    "2996": "ికెట",
    "2997": "ియంత్రణ",
    "2998": "జత",
    "2999": "ుశ",
    "3000": "ు నుంచ",
    "3001": "గ్ర",
    "3002": "ుంజ",
    "3003": "ురుషుల",
    "3004": "థానాయకుడిగా ",
    "3005": "విష్క",
    "3006": "ణాళ",
    "3007": "ఎల్‌ ",
    "3008": "ద్రత",
    "3009": "ెలికాం",
    "3010": "ెక్ష",
    "3011": "్రైమాసికంలో ",
    "3012": "్‌ జిల్ల",
    "3013": "ుద్ర",
    "3014": "ిలోని ",
    "3015": "య",
    "3016": "్‌ ఈ",
    "3017": "తన",
    "3018": "క్టోబ",
    "3019": "ందులో ",
    "3020": "ంత",
    "3021": "ీచ",
    "3022": "ివీస",
    "3023": "ేస్తున్న",
    "3024": "ురాల",
    "3025": "ోగా ",
    "3026": "వాళ్ల",
    "3027": "ారామ",
    "3028": "టువంట",
    "3029": "ొంగ",
    "3030": " 2020",
    "3031": "్యతిరేక",
    "3032": " ఉద్యోగ",
    "3033": "ాన్ని స",
    "3034": "హాన",
    "3035": "ీబీఐ",
    "3036": "ిరాక",
    "3037": "ైల్వ",
    "3038": "ిష్ట",
    "3039": "ధికారులు ",
    "3040": "ీకి ",
    "3041": "్‌ రెడ్డ",
    "3042": "ెన్నిస",
    "3043": "ి 7",
    "3044": " పెట్టుబడ",
    "3045": "రుణ",
    "3046": "టించిన",
    "3047": "ంత",
    "3048": "ా\nస",
    "3049": "ెలక",
    "3050": "ైమ",
    "3051": "వాడ",
    "3052": "ెస్టిండీస",
    "3053": "ీంద్ర",
    "3054": "ాగ",
    "3055": "జ",
    "3056": "ిణామ",
    "3057": "ొలిసార",
    "3058": "ాధ్యమ",
    "3059": "్రితం ",
    "3060": "ా ఆ",
    "3061": "్యాస",
    "3062": "ులు మ",
    "3063": "ారెడ్డ",
    "3064": "ంపాద",
    "3065": "ుకునేందుకు ",
    "3066": "ెలిపారు\n",
    "3067": "ాలను\n",
    "3068": "ండస్ట్ర",
    "3069": "27",
    "3070": "ార్గ",
    "3071": "ొలి ఇ",
    "3072": "్‌ సంస్థ",
    "3073": "రత",
    "3074": "్‌ 10",
    "3075": "్రకారం ",
    "3076": "ివిజ",
    "3077": "ాలన్న",
    "3078": "ిలో\n",
    "3079": " ప్రకారం ",
    "3080": "ార్మ",
    "3081": "ందించ",
    "3082": "్‌)",
    "3083": "ర్షణ",
    "3084": "దలాడ",
    "3085": "ీనియర్‌ ",
    "3086": "ంచ",
    "3087": "ి 6",
    "3088": " తగ్గ",
    "3089": "్‌ ట్ర",
    "3090": "వ",
    "3091": " లక్షల కోట్ల",
    "3092": "ాకప",
    "3093": "ెప్టెంబర",
    "3094": "ు-",
    "3095": "ెన్స్‌ ",
    "3096": " కొన్న",
    "3097": "ి సినిమ",
    "3098": "ే సమయంలో ",
    "3099": " భవ",
    "3100": "ోటార",
    "3101": " సందర్భంగా ",
    "3102": "ుదుర",
    "3103": "ుఖ్య",
    "3104": "ీ\nస",
    "3105": "’ని ",
    "3106": "ుమ్ర",
    "3107": "ేటాయ",
    "3108": "ంధ",
    "3109": "ిత్వ",
    "3110": "పల్ల",
    "3111": "ోన్‌",
    "3112": "డి ",
    "3113": "్విచ",
    "3114": "ం\n   ",
    "3115": "ేయాలని ",
    "3116": "\nహ",
    "3117": " వర్గ",
    "3118": "ఘ",
    "3119": "గత",
    "3120": "ోహిత",
    "3121": "రిష్క",
    "3122": " క్రీడ",
    "3123": "ిర్ణయ",
    "3124": "ాజిట",
    "3125": "ర్చ",
    "3126": "ర",
    "3127": "ల్లిద",
    "3128": "ల్లిదండ్ర",
    "3129": "ు ‘",
    "3130": " నెల",
    "3131": "ారు స",
    "3132": "ీనిపై",
    "3133": "ిబ్బంది ",
    "3134": "్యాచ్‌లో ",
    "3135": "రుగులు ",
    "3136": "ారతీయ",
    "3137": "్‌ స్ట",
    "3138": "దితరులు ",
    "3139": " రవ",
    "3140": "ిస్ట్ర",
    "3141": "ోర",
    "3142": "వ్యాప్తంగా ",
    "3143": "ోల్డ",
    "3144": " గ్ర",
    "3145": "గాడు ",
    "3146": "కట",
    "3147": "ి తన",
    "3148": "్యాటింగ్‌ ",
    "3149": "రోనా వైరస",
    "3150": "ప్పటికీ ",
    "3151": "ికూల",
    "3152": "రోసార",
    "3153": "వర్‌ ",
    "3154": "ు డ",
    "3155": "ారు న",
    "3156": "ిశగా ",
    "3157": "ేదన",
    "3158": " వరకూ",
    "3159": "ల్‌ క",
    "3160": "ౌండ్లో ",
    "3161": "ిశాఖ",
    "3162": "ోణ",
    "3163": "పెట్ట",
    "3164": "ౌరవ",
    "3165": "లో మ",
    "3166": "ీలను ",
    "3167": "చ్చే ",
    "3168": "ేసింది ",
    "3169": "ృహ",
    "3170": "ూడిన",
    "3171": "ాంధ",
    "3172": " స్థాన",
    "3173": "గర్వాల",
    "3174": " బ్యాటింగ్‌ ",
    "3175": "ేశ్వర",
    "3176": "33",
    "3177": "వ",
    "3178": "ూపొంద",
    "3179": " పెద్ద",
    "3180": "ైటిల",
    "3181": "ంగానే ",
    "3182": "స్త",
    "3183": "ు రోజుల",
    "3184": "ౌడ",
    "3185": "ాన్స్‌",
    "3186": "రఖ",
    "3187": "ెక",
    "3188": "ుంటే ",
    "3189": "మే",
    "3190": "ెప్ప",
    "3191": "స్మ",
    "3192": "్రీలంక",
    "3193": " అవకాశ",
    "3194": "లన",
    "3195": "యిద",
    "3196": "ాట",
    "3197": "యాన",
    "3198": "కుల",
    "3199": " బృంద",
    "3200": "ేసు నమోద",
    "3201": "రఖాస్త",
    "3202": "ిట్ట",
    "3203": " విభాగంలో ",
    "3204": "ు 5",
    "3205": " ప్రత్యేక",
    "3206": "ం\n  ",
    "3207": "ేకుండ",
    "3208": " సిరీస",
    "3209": " అన్న",
    "3210": "ిని ప",
    "3211": "్విట",
    "3212": "ాల్పడ్డ",
    "3213": "త్వం వహ",
    "3214": "ివ",
    "3215": "డం\n",
    "3216": "ి వె",
    "3217": "ాధ్య",
    "3218": "ిపోయింది ",
    "3219": " విషయం ",
    "3220": "ారు ‘",
    "3221": "వర్త",
    "3222": "డ",
    "3223": "ి\nవ",
    "3224": "్రేక్షకుల",
    "3225": " జన",
    "3226": "ాగ్రత్త",
    "3227": "తో కలిస",
    "3228": "-20",
    "3229": "్‌ 30",
    "3230": "్రేడ",
    "3231": "ూరు ",
    "3232": "గర్‌ ",
    "3233": " ఉండ",
    "3234": "ెరుగ",
    "3235": "ండర్‌-1",
    "3236": "ం చేశారు ",
    "3237": " వస్త",
    "3238": "బృంద",
    "3239": "్వాధీన",
    "3240": "ొదల",
    "3241": " కంపెనీల",
    "3242": "ర",
    "3243": " బీమ",
    "3244": "న్నట్లు ",
    "3245": "ెలరేగ",
    "3246": "థ్ల",
    "3247": "47",
    "3248": "ెలక్ష",
    "3249": "ాయి",
    "3250": " ఆధార",
    "3251": "ాగే ",
    "3252": "రణ",
    "3253": "్‌చ",
    "3254": "ావాల",
    "3255": "నెల",
    "3256": " కార్యదర్శ",
    "3257": "ాదేశ",
    "3258": "్‌రౌండ",
    "3259": "శాత",
    "3260": "క్స",
    "3261": "ిత్త",
    "3262": "దేహ",
    "3263": " దృష్ట",
    "3264": "ాలున్న",
    "3265": "ుజర",
    "3266": "ుజరాత",
    "3267": "ోర్నీలో ",
    "3268": "దుప",
    "3269": " చేసిన",
    "3270": " ప్రయాణ",
    "3271": "య్యారు ",
    "3272": " అంతర్జాతీయ",
    "3273": "26",
    "3274": "ంధ్రప్రదేశ",
    "3275": "్‌ భ",
    "3276": "ి\n*",
    "3277": "ిర్మాణ",
    "3278": "ు\n*",
    "3279": "ోటుచేస",
    "3280": "ిప",
    "3281": "వకాశం ",
    "3282": "క్షిణాఫ్రిక",
    "3283": "్‌ అల",
    "3284": "్‌ 8",
    "3285": "ా గ",
    "3286": "ందర",
    "3287": "ం\nచేస",
    "3288": "ేతృత్వ",
    "3289": "ధ్య",
    "3290": "ౌలింగ్‌లో ",
    "3291": "ర్ఘ",
    "3292": "ిక్స",
    "3293": " తెలిప",
    "3294": "ిలియన్‌ డాలర్ల",
    "3295": "ెరగ",
    "3296": "\nడ",
    "3297": " పూర్త",
    "3298": "ీ ఆ",
    "3299": "ీ హ",
    "3300": " గంటల",
    "3301": "ింది\n*",
    "3302": "ు హ",
    "3303": "ీ\nక",
    "3304": "డంతో\n",
    "3305": " చట్ట",
    "3306": "ి వచ్చిన",
    "3307": " మండల",
    "3308": "ందీప",
    "3309": "ెబుతున్న",
    "3310": "ా-",
    "3311": "ీటర్ల",
    "3312": "దే ",
    "3313": " సహ",
    "3314": "ెలిపారు.",
    "3315": " అనంతర",
    "3316": "ిత్య",
    "3317": "ఎఫ",
    "3318": "ాల వ",
    "3319": "ించాం",
    "3320": "ుత్తమ",
    "3321": "ర్జున",
    "3322": "ధిప",
    "3323": "త",
    "3324": "ాల్లో\n",
    "3325": " పన",
    "3326": "త్యధిక",
    "3327": "ాల్లో",
    "3328": "ైఫ",
    "3329": "ిస్తున్నట్లు ",
    "3330": "ంటున్న",
    "3331": "ీ జ",
    "3332": "ఫ్గ",
    "3333": "ూ",
    "3334": " నికర",
    "3335": "శాఖ",
    "3336": "ీక",
    "3337": " సాయ",
    "3338": "ల్‌\n",
    "3339": "ాల్సిన అవసర",
    "3340": "ివ్వ",
    "3341": "ిని న",
    "3342": "ోడ",
    "3343": "ారణ",
    "3344": "రోప",
    "3345": "98",
    "3346": "తల",
    "3347": "ేవర",
    "3348": "ణాళిక",
    "3349": "ాలు మ",
    "3350": "సూల",
    "3351": " పాయింట్ల వద్ద",
    "3352": "ల",
    "3353": "శాంత",
    "3354": "ేనే ",
    "3355": " అతడ",
    "3356": "ెనక్క",
    "3357": "మణ",
    "3358": "ి మృత",
    "3359": "\nలక్ష",
    "3360": "ెయిన",
    "3361": "ద్దేశ",
    "3362": "రిధ",
    "3363": "్యవస్థ",
    "3364": "ాఫ్ట",
    "3365": " 26",
    "3366": "భిప్రాయ",
    "3367": "ీసుకున",
    "3368": "ోక్య",
    "3369": "ాయి ఈ",
    "3370": "ీహెచ",
    "3371": "ొక",
    "3372": " ఆల",
    "3373": "ా ప్ర",
    "3374": " విధాన",
    "3375": "ించారు\n        _      ",
    "3376": "ర్మాస",
    "3377": " ఉత్పత్త",
    "3378": " మృత",
    "3379": " రోజుల",
    "3380": "ం బ",
    "3381": "ింది స",
    "3382": "లోనూ",
    "3383": "ెలవ",
    "3384": "లు వ",
    "3385": "్రవేశ",
    "3386": "ేర్కొంద",
    "3387": "ి విజయ",
    "3388": "ం 3",
    "3389": "మ్మద",
    "3390": "ంగ్లాదేశ",
    "3391": "్‌ను\n",
    "3392": " బ్ర",
    "3393": "ిమిద",
    "3394": "ావోయ",
    "3395": "క్టోబర",
    "3396": "్యాన్ని ",
    "3397": "కర",
    "3398": " 100",
    "3399": "్‌ఏ",
    "3400": "ం సాధించింది ",
    "3401": "న్‌ర",
    "3402": "ునర",
    "3403": " వేల",
    "3404": "్నేహిత",
    "3405": "బడ",
    "3406": "ావోయిస్ట",
    "3407": "దువ",
    "3408": "్‌ ఇండియా ",
    "3409": " ఆర్‌",
    "3410": "న్నారు ",
    "3411": " వన్డ",
    "3412": "ిపాజిట",
    "3413": "ీ ల",
    "3414": "’’ అన్న",
    "3415": "ుబంధ",
    "3416": "ోధన",
    "3417": "రుగుల",
    "3418": "ాలస",
    "3419": "ీన్న",
    "3420": "ావాదేవ",
    "3421": "హారాష్ట్ర",
    "3422": "ం\nర",
    "3423": "్‌కు\n",
    "3424": "ాకిస్థాన",
    "3425": "ిస్తామని ",
    "3426": "ీపై",
    "3427": " ఎగ",
    "3428": "ోత్సవ",
    "3429": "ండస్ట్రీస",
    "3430": "ే",
    "3431": "బోత",
    "3432": "కృష్ణ",
    "3433": "ేర్‌ ",
    "3434": "ించగా ",
    "3435": " దగ్గర",
    "3436": " చొప్పున",
    "3437": "ెంటనే ",
    "3438": " ఇండ",
    "3439": "ాధారణ",
    "3440": "ిగణ",
    "3441": " కిల",
    "3442": "ిత్రీకరణ",
    "3443": "ందువల్ల",
    "3444": "44",
    "3445": "ాల్సి ఉంటుంద",
    "3446": " వైద్య",
    "3447": "డువ",
    "3448": "ే\nస",
    "3449": " ప్రభావం ",
    "3450": "ూర్చ",
    "3451": "ల్లో\n",
    "3452": "ను క",
    "3453": "్యాహ",
    "3454": "ప",
    "3455": "గ్న",
    "3456": "ృద్ధ",
    "3457": "ారీ ",
    "3458": "ార్చ",
    "3459": "ల",
    "3460": "లో న",
    "3461": "ాస్తవ",
    "3462": "క్కువగా ",
    "3463": "బ్ద",
    "3464": "ేర్కొంది ",
    "3465": "ొస్త",
    "3466": "ీ ద",
    "3467": "మిళ",
    "3468": "ంలోనూ",
    "3469": " అల",
    "3470": "మాచార",
    "3471": "ా సమ",
    "3472": "ార్యకలాప",
    "3473": " పోష",
    "3474": " వె",
    "3475": "్‌సీఏ",
    "3476": "హా ",
    "3477": " నిర్మాణ",
    "3478": "లేదు ",
    "3479": "్‌ కూడా ",
    "3480": "ంది.",
    "3481": "ారు ఆ",
    "3482": "చ్చిన",
    "3483": "కు న",
    "3484": " మహిళ",
    "3485": "78",
    "3486": "ృంభ",
    "3487": "ానుంద",
    "3488": " నాలుగ",
    "3489": "ిళ్ల",
    "3490": "్రైవేట",
    "3491": "ీల్డ",
    "3492": "\nకోట్ల",
    "3493": "ికెట",
    "3494": "ేన్‌ ",
    "3495": " ఉప",
    "3496": "ోజ",
    "3497": "మ",
    "3498": "ాక",
    "3499": "ెష",
    "3500": "ేసులో ",
    "3501": " చెప్ప",
    "3502": "జన",
    "3503": " విక్రయ",
    "3504": "కాడ",
    "3505": "న్ను ",
    "3506": "నాడు డిజిటల్‌ హైదరాబాద",
    "3507": "హ్ల",
    "3508": "జాజ",
    "3509": "గా నిలిచ",
    "3510": "శ్మీర్‌",
    "3511": "-8",
    "3512": "ంగారం ",
    "3513": " అమ్మ",
    "3514": "ుక్త",
    "3515": "39",
    "3516": "ఫ్గాన",
    "3517": "కుడు ",
    "3518": "అ",
    "3519": " సర",
    "3520": "్‌ సంఘ",
    "3521": "ెళ్త",
    "3522": "ిశ్ర",
    "3523": "ులు వ",
    "3524": "ృథ",
    "3525": "్పోర్ట",
    "3526": " సంస్థల",
    "3527": "ాజప",
    "3528": " పాల",
    "3529": "ేశారు.",
    "3530": "రిచ",
    "3531": "్రోఫ",
    "3532": "్యస",
    "3533": "రీ",
    "3534": "ేర",
    "3535": "ి ఓ",
    "3536": "సూ",
    "3537": "గట",
    "3538": "విష",
    "3539": "ీతారామ",
    "3540": "ూనే ",
    "3541": "ుతుంట",
    "3542": "నర",
    "3543": "ావ",
    "3544": "లు ప",
    "3545": "కు ర",
    "3546": "న్నింగ్స్‌",
    "3547": "ేందుక",
    "3548": "రియ",
    "3549": "ధిక్య",
    "3550": "ాక్‌ ",
    "3551": "మిక",
    "3552": "ిజర్వ",
    "3553": "ట్టులో ",
    "3554": "్‌ క్రికెట",
    "3555": "ింగ్‌లో ",
    "3556": "్‌ ఆడ",
    "3557": " పరిశ్రమ",
    "3558": "ు నెలల",
    "3559": "ంగా క",
    "3560": "ందోళన",
    "3561": " వ్యాపార",
    "3562": "ట్ట",
    "3563": "పెన్‌ ",
    "3564": "ిర",
    "3565": "ాడు ‘‘",
    "3566": "లోప",
    "3567": "ాంస్య",
    "3568": "ాపాడ",
    "3569": "ిల్లా ",
    "3570": "ారత్‌ ",
    "3571": "్రశ్న",
    "3572": "ా\n",
    "3573": "ావొచ్చ",
    "3574": "ెలిచ",
    "3575": "ామ",
    "3576": " తెలంగాణ",
    "3577": "ి\n    ",
    "3578": "ం తగ్గ",
    "3579": "000 కోట్ల",
    "3580": "నుమాన",
    "3581": "ొబ",
    "3582": "ి)",
    "3583": " స్థిత",
    "3584": "ురస్క",
    "3585": "ంగా మార",
    "3586": "ోర్స",
    "3587": "ాంగ్ర",
    "3588": "ి య",
    "3589": "రిగణ",
    "3590": "నీస",
    "3591": "ిరణ",
    "3592": "ి మూడ",
    "3593": "ం తర్వాత",
    "3594": " తప్ప",
    "3595": "ష్ట",
    "3596": " సంస్థలు ",
    "3597": "్రసాద",
    "3598": "ేసినట్లు ",
    "3599": " దర్శకుడు ",
    "3600": "ాన్ని అంద",
    "3601": "ోదర",
    "3602": "66",
    "3603": "్‌లను ",
    "3604": "్యాట్స్‌మె",
    "3605": "ిగిలిన",
    "3606": "చ్ఛ",
    "3607": "ీల",
    "3608": "ోల",
    "3609": "ేడుక",
    "3610": "ిబ్బంద",
    "3611": " పొంద",
    "3612": "హరించ",
    "3613": " రోహిత",
    "3614": "ంజీవ",
    "3615": "ంకయ్య",
    "3616": " దిగ",
    "3617": "ీఓ",
    "3618": "ేగంగా ",
    "3619": "ోడ",
    "3620": "త్తిడ",
    "3621": "ిస్తున్నాం",
    "3622": " ఆస్త",
    "3623": " నిబంధన",
    "3624": "ని స",
    "3625": "ు కూడా ",
    "3626": " ప్రేమ",
    "3627": "ంచ",
    "3628": "ారు ",
    "3629": "కాడమ",
    "3630": "ి అత",
    "3631": "ంలో న",
    "3632": "లు న",
    "3633": "్‌ ఫైన",
    "3634": " విన",
    "3635": "34",
    "3636": "ివిజన్‌ ",
    "3637": "ధ్యాహ",
    "3638": "ధ్యాహ్న",
    "3639": "ుకుంటూ",
    "3640": "్యాధ",
    "3641": "ిన్ని ",
    "3642": " ముంబయ",
    "3643": "ాడ",
    "3644": "ంజాబ",
    "3645": "కూల",
    "3646": " మరో ",
    "3647": "ులకు\n",
    "3648": "ీమియ",
    "3649": "ల్లోక",
    "3650": "ాంగ్రెస",
    "3651": "ి\nబ",
    "3652": " నెగ్గ",
    "3653": "డ",
    "3654": "ంబర్‌",
    "3655": "గాన",
    "3656": "ు ధర",
    "3657": "విద",
    "3658": "ం ఈ",
    "3659": " విలువైన",
    "3660": "ాతావరణ",
    "3661": "పట్న",
    "3662": "్యూస్‌టుడే",
    "3663": "హిళల",
    "3664": "్రీజ",
    "3665": "ర్థ",
    "3666": "యిత",
    "3667": " మార్కెట",
    "3668": "ెండు ",
    "3669": "్ఫూర్త",
    "3670": "ి ఉన్న",
    "3671": "ు చేసింది ",
    "3672": "ఢ",
    "3673": "ా హ",
    "3674": "ాదు ",
    "3675": "ా ల",
    "3676": "ిక్స్‌",
    "3677": "ార్కెట్ల",
    "3678": "సీఐ",
    "3679": "్రకటించింది ",
    "3680": "ెల్లింప",
    "3681": "ే నెల",
    "3682": " టెస్ట",
    "3683": "ర్త",
    "3684": "నాడ",
    "3685": "దుపర",
    "3686": "ుల క",
    "3687": "ోడ్డ",
    "3688": " నిధ",
    "3689": "ేర",
    "3690": "ిగ్ర",
    "3691": "ి 10",
    "3692": "ర్యలు ",
    "3693": "ేషన్ల",
    "3694": "ికి తరల",
    "3695": "ిత్రబృంద",
    "3696": " మహిళల",
    "3697": " ఫైన",
    "3698": "ద్భుత",
    "3699": "ిరెడ్డ",
    "3700": "ాజమాన",
    "3701": "ెమీస్‌లో ",
    "3702": "55",
    "3703": "ిటెడ",
    "3704": "ర్బ",
    "3705": "న్‌ను ",
    "3706": "్‌రాజ",
    "3707": "ిగా\n",
    "3708": "ీలకు ",
    "3709": "ెన్సెక",
    "3710": " జూన",
    "3711": " కీలక",
    "3712": "రఫర",
    "3713": "్వాస",
    "3714": " వికెట్లు ",
    "3715": " ఆక",
    "3716": "ి కూడా ",
    "3717": "న్‌లైన",
    "3718": " ఆశ",
    "3719": "ొగ్గ",
    "3720": "ేవలు ",
    "3721": "ం\nవ",
    "3722": "ాయి ",
    "3723": "్వారా ",
    "3724": " విద్యార్థ",
    "3725": " జాతీయ",
    "3726": "ిగ్గజ",
    "3727": "గిన",
    "3728": "న్వ",
    "3729": "లస",
    "3730": "ీరు ",
    "3731": "నాల",
    "3732": "పుడు ",
    "3733": "ేర్కొన్న",
    "3734": "నిప",
    "3735": "ులను\n",
    "3736": " ఆటగాళ్ల",
    "3737": "్పందన",
    "3738": "త్క",
    "3739": "్యాడ్మింట",
    "3740": "ాల్ప",
    "3741": "ీ,",
    "3742": "ూన",
    "3743": "పడింది ",
    "3744": "ొంద",
    "3745": "ించారు ఈ",
    "3746": "ో",
    "3747": "ధ్వర్యంలో ",
    "3748": "్లు ",
    "3749": "మెరికా ",
    "3750": "ు 6",
    "3751": "ూడద",
    "3752": "ించారు క",
    "3753": "ి ఆర",
    "3754": " ఐట",
    "3755": "కీయ",
    "3756": "ూసుకెళ్ల",
    "3757": "ం చ",
    "3758": "ాస్‌ ",
    "3759": "ి తొల",
    "3760": "ిరాజ",
    "3761": "ేర్చ",
    "3762": "ి బంత",
    "3763": "త్యంత",
    "3764": " 28",
    "3765": "29",
    "3766": "్టార",
    "3767": "నిపించ",
    "3768": "ర",
    "3769": "కు వెళ్ల",
    "3770": " 27",
    "3771": "ుర్ర",
    "3772": "ి\n   ",
    "3773": " ఒత్తిడ",
    "3774": "ోభ",
    "3775": "ోవచ్చ",
    "3776": "ర్ర",
    "3777": "ుమారు ",
    "3778": " *",
    "3779": "\nశాత",
    "3780": "పడుతున్న",
    "3781": "ారత్‌కు ",
    "3782": "్రోత్స",
    "3783": "్యాచార",
    "3784": "ు\nల",
    "3785": "ణాంక",
    "3786": " వారం ",
    "3787": "స్థానంలో ",
    "3788": "ుప్పకూల",
    "3789": "వసర",
    "3790": "ైనిక",
    "3791": "ీనికి ",
    "3792": "పున",
    "3793": "న్నింగ్స్‌ ",
    "3794": " పోట",
    "3795": "్‌హ",
    "3796": "ింక",
    "3797": "ిపెట్ట",
    "3798": "ార్యాలయ",
    "3799": "ాల్లోక",
    "3800": "ిమిటెడ",
    "3801": "్‌డీఎఫ్‌స",
    "3802": "ేరళ",
    "3803": "ీ-",
    "3804": "ాడు\n        _      ",
    "3805": "’’న్న",
    "3806": "లు ర",
    "3807": "్‌శ",
    "3808": "లు మ",
    "3809": "ెడ",
    "3810": "ంటే మ",
    "3811": "48",
    "3812": "ీలో",
    "3813": "్థాయ",
    "3814": " క్ష",
    "3815": "్రాంత",
    "3816": "ాస్త్ర",
    "3817": "్లబ",
    "3818": " జరిగిన",
    "3819": " నగద",
    "3820": "ీసీఎస",
    "3821": "’ అనే ",
    "3822": " నిర్మాత",
    "3823": "ొలగ",
    "3824": "ండద",
    "3825": "డిన",
    "3826": "ొలి ",
    "3827": " అయితే ",
    "3828": "్య",
    "3829": "క్షణ",
    "3830": "ీఎం",
    "3831": " కార్యక్రమంలో ",
    "3832": "ాల నుంచ",
    "3833": "ుగ్గుర",
    "3834": "వర్న",
    "3835": "ి 8",
    "3836": " తీస",
    "3837": "49",
    "3838": "ువుర",
    "3839": "గమన",
    "3840": " జాబిత",
    "3841": " తయార",
    "3842": "ురేష",
    "3843": "ి రాజ",
    "3844": "ంతా ",
    "3845": "్వీట",
    "3846": "్‌ 9",
    "3847": "మ్మూ",
    "3848": "68",
    "3849": " వయస",
    "3850": "ోల్పోయ",
    "3851": "్‌\n    ",
    "3852": "ొని ",
    "3853": " \n",
    "3854": "ి దిగ",
    "3855": " స్థాయి ",
    "3856": "ాధిత",
    "3857": "ు 7",
    "3858": "ిన్నార",
    "3859": "ును\n",
    "3860": "ుకుంది ",
    "3861": " పరీక్ష",
    "3862": "ి వార",
    "3863": "ందర",
    "3864": " మాధ్యమ",
    "3865": "ావర",
    "3866": " కారణ",
    "3867": "ర్‌రెడ్డ",
    "3868": "్రెడ",
    "3869": "ేజ",
    "3870": " వివ",
    "3871": "ర్‌తో ",
    "3872": "ుకోవడానికి ",
    "3873": "ాకు చెందిన",
    "3874": "్వాన",
    "3875": "ూ7",
    "3876": "ం చేస్త",
    "3877": "ాంశ",
    "3878": "ర్యటన",
    "3879": " క్రమ",
    "3880": "న్నత",
    "3881": "ిషేధ",
    "3882": "ోదీ ",
    "3883": "యిత",
    "3884": "లపడ",
    "3885": "ాదార్ల",
    "3886": "లు స",
    "3887": "మీప",
    "3888": "ర్త",
    "3889": "ాబ్ద",
    "3890": " బాలిక",
    "3891": "ాక",
    "3892": " రామ",
    "3893": "ిని స",
    "3894": "31",
    "3895": "32",
    "3896": "ంట్రాడ",
    "3897": "్స్‌కు ",
    "3898": "ూ10",
    "3899": "ర్పడ",
    "3900": "విశ",
    "3901": "గలిగ",
    "3902": "ం",
    "3903": "్యాపార",
    "3904": "ియేట",
    "3905": "్వార",
    "3906": "ారు ప",
    "3907": "గిర",
    "3908": "ిక్క",
    "3909": "్‌\nబ",
    "3910": " గరిష్ఠ",
    "3911": "ెరకెక్క",
    "3912": "ద",
    "3913": "ందుబాటులోక",
    "3914": "ల",
    "3915": "ాం.",
    "3916": "ుతుండ",
    "3917": "గానే ",
    "3918": "ం చేసుకున్న",
    "3919": "్దేశ",
    "3920": "ర్‌కు ",
    "3921": "బ్ల్యూ",
    "3922": "్‌య",
    "3923": "్రువ",
    "3924": "ుకోవాలని ",
    "3925": "    _      ",
    "3926": "ీ.",
    "3927": "ి మన",
    "3928": "కి ",
    "3929": " విషయంలో ",
    "3930": "ంగారెడ్డ",
    "3931": "ుళ",
    "3932": "న్నికల",
    "3933": " బాలుర",
    "3934": "ాస్కెట",
    "3935": "ైజర్స",
    "3936": "్యూల",
    "3937": " రాహుల",
    "3938": "ధార",
    "3939": "ికేయ",
    "3940": " చెల్ల",
    "3941": " సింగిల",
    "3942": "్‌ ఆట",
    "3943": " జీఎస్‌ట",
    "3944": "్రాణ",
    "3945": "ృష్ట",
    "3946": "ాడిన",
    "3947": "కొండ",
    "3948": "ి\n                       ",
    "3949": "ంటుందని ",
    "3950": "పైన",
    "3951": "ుకుప",
    "3952": "\nనుంచ",
    "3953": "్రకటించ",
    "3954": "ముంద",
    "3955": "ుగిసిన",
    "3956": "ేందుకు\n",
    "3957": "ూట",
    "3958": "ేయడానికి ",
    "3959": "ంటే",
    "3960": " రూప",
    "3961": " ",
    "3962": "పాన",
    "3963": "\nరెండ",
    "3964": "ేయడ",
    "3965": "ల్బ",
    "3966": " 2018-19",
    "3967": "ెప్టెన్‌",
    "3968": "ోల్బ",
    "3969": "ోల్బణ",
    "3970": "కథ",
    "3971": "ినంద",
    "3972": "ోయిన",
    "3973": "ేబుల",
    "3974": "ైదానంలో ",
    "3975": " బల",
    "3976": "్‌ మహ",
    "3977": "్‌లోనూ",
    "3978": "తంలో ",
    "3979": " అత్య",
    "3980": "ిమానాశ్రయ",
    "3981": "్యాయ",
    "3982": "న్‌ ర",
    "3983": "్‌ఎల",
    "3984": " కంపెన",
    "3985": " చర్చ",
    "3986": "క్కసార",
    "3987": "ాకుండా ",
    "3988": "ీమ",
    "3989": " కేజీల",
    "3990": "ీర్చ",
    "3991": "్రతికూల",
    "3992": "-10",
    "3993": "ప్పటికే ",
    "3994": "ులు ప",
    "3995": " ఒప్పంద",
    "3996": "ిభ",
    "3997": "ియామ",
    "3998": "ర",
    "3999": "ించిన స",
    "4000": "్రీకాంత",
    "4001": "ియమ",
    "4002": "ెస్‌ బ్యాంక",
    "4003": "డేజ",
    "4004": "ీ గ",
    "4005": " టోర్నీలో ",
    "4006": "ుమ్మ",
    "4007": "తోపాట",
    "4008": "స్ట్రేలియ",
    "4009": "న\n",
    "4010": "ేస",
    "4011": "స్‌బీఐ",
    "4012": "త",
    "4013": "ాడు ఈ",
    "4014": "ోలో ",
    "4015": "్రయాణిక",
    "4016": "కుమార",
    "4017": " కోహ్ల",
    "4018": "ట్టు ",
    "4019": " ముఖ్య",
    "4020": "ుంటుంద",
    "4021": "ువనేశ్వ",
    "4022": " డాలర్ల",
    "4023": " సంఘటన",
    "4024": "ానికి చేర",
    "4025": " రెండో ",
    "4026": "లాంట",
    "4027": "్ఞాన",
    "4028": "ేందుకు ",
    "4029": "ేల్‌ ",
    "4030": "డుగుపెట్ట",
    "4031": " అండర్‌-1",
    "4032": "ి తప్ప",
    "4033": "ద్ధత",
    "4034": "ం 1",
    "4035": "ి\n  ",
    "4036": "ుమతి ",
    "4037": "ోర",
    "4038": "గ్రహ",
    "4039": "తో క",
    "4040": "యారు ",
    "4041": "్లాంట",
    "4042": "ే అవకాశం ఉంది ",
    "4043": "్రిప",
    "4044": " 35",
    "4045": " దీ",
    "4046": "్‌ తన",
    "4047": " టీ20",
    "4048": "ాన్ని క",
    "4049": "ి అద",
    "4050": " సమాచార",
    "4051": "్‌\nఅ",
    "4052": "రాజ",
    "4053": "ుల",
    "4054": "తకాల",
    "4055": " అధికారులు ",
    "4056": " వెంట",
    "4057": "్మిక",
    "4058": "ార్పొరేట",
    "4059": "న్‌ మ",
    "4060": "ైదాన",
    "4061": "రోగ్య",
    "4062": "రిప",
    "4063": "ండ",
    "4064": "ు వికెట్ల",
    "4065": " నేపథ్య",
    "4066": "ార",
    "4067": "ీసుకొచ్చ",
    "4068": "ాల్పడ",
    "4069": "్‌ చేశ",
    "4070": "ు వికెట్లు ",
    "4071": "బ్బంద",
    "4072": " ఎల",
    "4073": "కుడ",
    "4074": "ోపాల",
    "4075": "ూతన",
    "4076": "ాల మధ్య",
    "4077": "ిక్షణ",
    "4078": "ేశారు ",
    "4079": "ాయంత్ర",
    "4080": "మంది ",
    "4081": "ేర్చ",
    "4082": " ప్రజ",
    "4083": "ి ప్రపంచ",
    "4084": " జరిగ",
    "4085": "ి అమ",
    "4086": "ి ఇంట",
    "4087": "మేశ",
    "4088": "ి పెట్ట",
    "4089": "ంగా స",
    "4090": "ించొచ్చ",
    "4091": " స్కోర",
    "4092": "ారం\n",
    "4093": "ిహార",
    "4094": "0000",
    "4095": "్లాట",
    "4096": "్లామ",
    "4097": "రో",
    "4098": "్రకటించిన",
    "4099": "ూష",
    "4100": "ిషయంలో ",
    "4101": "ేకుండా ",
    "4102": "ి నర",
    "4103": " ఔషధ",
    "4104": "ిసర",
    "4105": "ిక్యూట",
    "4106": "ాయిద",
    "4107": "ాండ్య",
    "4108": "ూస్తున్న",
    "4109": "దవ",
    "4110": "్‌\n   ",
    "4111": "్రపంచకప్‌లో ",
    "4112": " జట్టు ",
    "4113": "ోను ",
    "4114": "ిఫల",
    "4115": "ంగాన",
    "4116": "ు స్వ",
    "4117": "దర్శక",
    "4118": "ూడా\n",
    "4119": "ండాల",
    "4120": "స",
    "4121": "్రవ్యోల్బణ",
    "4122": "ీ డ",
    "4123": " 45",
    "4124": "ాథమిక",
    "4125": "టిస్తున్న",
    "4126": "లా ",
    "4127": " విదేశ",
    "4128": "్పంద",
    "4129": "ాప",
    "4130": "ా స్ట",
    "4131": "ొప్ప",
    "4132": "ుకునే ",
    "4133": "ాలు న",
    "4134": " ఖాత",
    "4135": "బెట్ట",
    "4136": " చివర",
    "4137": "ుహ",
    "4138": "ాలజ",
    "4139": "ంవత్సర",
    "4140": "ాడు ",
    "4141": "ంపద",
    "4142": "ీలక",
    "4143": "ువుల",
    "4144": "ఆ",
    "4145": "ేడాద",
    "4146": "్యత్త",
    "4147": "ంకుర",
    "4148": "్షిక",
    "4149": "77",
    "4150": " భద్రత",
    "4151": "్యాణ",
    "4152": "ీవిత",
    "4153": "ోని ",
    "4154": "ుంక",
    "4155": "ేయస",
    "4156": "%,",
    "4157": " బ్యాటింగ్‌ చేసిన",
    "4158": "\n",
    "4159": " లేద",
    "4160": "ే అవకాశం ఉంద",
    "4161": " ఎఫ",
    "4162": "కల",
    "4163": "43",
    "4164": "ంకర్‌ ",
    "4165": "ిస్క",
    "4166": "జమాన",
    "4167": "్‌ రాజ",
    "4168": " జీవిత",
    "4169": "ీఆర్‌ ",
    "4170": "ిస్తారు ",
    "4171": "ాణా ",
    "4172": "ీర్ప",
    "4173": "్‌ స్కోర",
    "4174": "భార",
    "4175": " కన్న",
    "4176": "ాస్కెట్‌బాల",
    "4177": "న్‌రైజర్స",
    "4178": "  _      ",
    "4179": "ంఠ",
    "4180": "ర్శ",
    "4181": " మద్దత",
    "4182": "ైలు ",
    "4183": "్‌టెల",
    "4184": "ిద్దరూ",
    "4185": "క్క",
    "4186": "ార్కెట్లు ",
    "4187": "ుకోక",
    "4188": "్‌ చేసిన",
    "4189": "్‌ రెండ",
    "4190": "డ్డ",
    "4191": "ిష",
    "4192": "జ",
    "4193": " అక్కడ",
    "4194": "ూప",
    "4195": "సూళ్ల",
    "4196": "పీఎల",
    "4197": "ు కొనసాగ",
    "4198": " రికార్డ",
    "4199": "న్‌ న",
    "4200": "్రెడిట",
    "4201": "ిల్వ",
    "4202": "ౌండ్ల",
    "4203": "యార",
    "4204": "ెల్య",
    "4205": "ర్చ",
    "4206": "ెదిర",
    "4207": "ాయి\n        _      ",
    "4208": " గాయ",
    "4209": " టీమ",
    "4210": "ు\nప",
    "4211": "ాన",
    "4212": " సినిమ",
    "4213": "ిసిన",
    "4214": "ోలీసులు ",
    "4215": "ుక్త",
    "4216": "ామాజిక మాధ్యమ",
    "4217": "ేషనల్‌ ",
    "4218": "ంపత",
    "4219": "్రాబాద",
    "4220": "-18",
    "4221": "ి వాట",
    "4222": "   _      ",
    "4223": "ార్జున",
    "4224": "క్కడ",
    "4225": "్యాట్స్‌మ",
    "4226": "్యూచ",
    "4227": "ఎం",
    "4228": "స్టిస",
    "4229": "ుకుంది.",
    "4230": "ఐట",
    "4231": "రోప",
    "4232": "ాన",
    "4233": "నుస",
    "4234": "ికిత్స",
    "4235": "  ",
    "4236": "ు సంస్థ",
    "4237": "పడ్డారు ",
    "4238": "్టేడియంలో ",
    "4239": "ెస",
    "4240": "తో పాట",
    "4241": "ర్థిక సంవత్సర",
    "4242": "ాగస్వామ్య",
    "4243": " శ్రేణ",
    "4244": " టాట",
    "4245": "ిదిద్ద",
    "4246": "హ",
    "4247": "ని,",
    "4248": "శ్య",
    "4249": "రికి ",
    "4250": "ంత్ర",
    "4251": "ితేజ",
    "4252": "ంటే ",
    "4253": "క్కువగా ",
    "4254": "ీఎస్‌ఈ",
    "4255": "్జిక్యూట",
    "4256": "్జిక్యూటివ",
    "4257": "ేస్తున్నారు ",
    "4258": "ారీ ",
    "4259": "ాన్స్‌ ",
    "4260": "ిజిస్ట్ర",
    "4261": "ినవ",
    "4262": "ేశంలో ",
    "4263": "ెల్లడించారు ",
    "4264": "క్స్‌",
    "4265": "ీ నుంచ",
    "4266": "్‌ ఇండియ",
    "4267": "ాష్ట్రపత",
    "4268": "ంగా ఉంది ",
    "4269": "ొత్తగా ",
    "4270": "ులో ఉన్న",
    "4271": "ాంట్రాక్టు ఈ",
    "4272": "లవ",
    "4273": "్ర",
    "4274": " పతన",
    "4275": " ఘన",
    "4276": "ృత్య",
    "4277": "ాయి స",
    "4278": "ేనని ",
    "4279": " అస",
    "4280": "లౌటైంది ",
    "4281": "ర్‌ వ",
    "4282": "యాంక",
    "4283": "ాకుండ",
    "4284": "ి కథ",
    "4285": "ంకయ్యన",
    "4286": "ం అంద",
    "4287": "ంటర్న",
    "4288": "శేఖ",
    "4289": "ేలో",
    "4290": " ఐద",
    "4291": "్‌\n  ",
    "4292": "్రై",
    "4293": "ంజిన",
    "4294": " ఈనాడు హైదరాబాద",
    "4295": "ూర్ప",
    "4296": "నుకున్న",
    "4297": "భించ",
    "4298": "ాలా ",
    "4299": "ింహ",
    "4300": "్‌బాబ",
    "4301": "ానీ ",
    "4302": "ేంజ",
    "4303": "్‌సభ",
    "4304": "మవుతున్న",
    "4305": "ి పాత్ర",
    "4306": "ిన్న",
    "4307": "ుకొచ్చ",
    "4308": "46",
    "4309": "్‌ని ",
    "4310": " కేసులో ",
    "4311": "ా నుంచ",
    "4312": "ారు\nక",
    "4313": "రోజ",
    "4314": "ులక",
    "4315": "య్యాడు ",
    "4316": " నిర్వహణ",
    "4317": "ర్‌’",
    "4318": "ృప్త",
    "4319": "ియో ",
    "4320": "్రభ",
    "4321": "ేళ్లలో ",
    "4322": " 23",
    "4323": "ఠిన",
    "4324": " నగర",
    "4325": "ంతోపాట",
    "4326": "ాంతో ",
    "4327": "ో స్థానంలో ",
    "4328": "ాల్గొ",
    "4329": "ధిపత్య",
    "4330": "ుకోవడ",
    "4331": "ీయ",
    "4332": " ఏర్",
    "4333": "-9",
    "4334": "-0-3",
    "4335": "ం చేసింది ",
    "4336": "న్‌ ప",
    "4337": "ా ‘",
    "4338": "ుర్తించ",
    "4339": "ాహక",
    "4340": "్రతినిధ",
    "4341": "్కూల",
    "4342": "వేళ",
    "4343": "న్ఫ",
    "4344": "దుల",
    "4345": " కనిష్ఠ",
    "4346": " కొనసాగ",
    "4347": " చిన్నార",
    "4348": "కు గుర",
    "4349": " ఆరోగ్య",
    "4350": " ద్వార",
    "4351": "ెలియజ",
    "4352": "ంకేత",
    "4353": "ేళ",
    "4354": "ికింద",
    "4355": " చిత్రమిద",
    "4356": " ఎక్స్‌",
    "4357": "ౌంట",
    "4358": "ష్య",
    "4359": "ించింది ఈ",
    "4360": "తను ",
    "4361": "ిలిప",
    "4362": "్‌ అండ",
    "4363": "ేదనలో ",
    "4364": "ూడాల",
    "4365": "నీయ",
    "4366": " ద్వారా ",
    "4367": "ంలో ఉన్న",
    "4368": " నవ",
    "4369": "్‌ దర్శక",
    "4370": "ాట్లాడుతూ ‘‘",
    "4371": "ోహన్‌",
    "4372": "ాలని కోర",
    "4373": "ి ఆట",
    "4374": "ుదుర్చ",
    "4375": "నవర",
    "4376": "గాడ",
    "4377": "డ",
    "4378": " డబుల",
    "4379": "ొడవ",
    "4380": "్వార్టర్స్‌లో ",
    "4381": "ుతోంది.",
    "4382": " మాజ",
    "4383": "ిక్స్‌ ",
    "4384": " వికెట్లకు 1",
    "4385": "న్నింగ్స్‌లో ",
    "4386": " ప్రభావ",
    "4387": "ే\nన",
    "4388": "్రదర్శ",
    "4389": "ారుత",
    "4390": " మార్ప",
    "4391": "ి బయట",
    "4392": "న",
    "4393": "విచ",
    "4394": "్రయోగ",
    "4395": "శ్విన",
    "4396": " వాణిజ్య",
    "4397": "ి నెల",
    "4398": " సమాచారం ",
    "4399": "్రీడాకారిణ",
    "4400": "ోలిస్త",
    "4401": "ుపత",
    "4402": " గురించ",
    "4403": "ూర్య",
    "4404": "శ్చ",
    "4405": "ి దర్శక",
    "4406": "నే\n",
    "4407": " ర్యాంక",
    "4408": "వుతుంద",
    "4409": "ాల్లోనూ",
    "4410": "దుర్కొ",
    "4411": " విచారణ",
    "4412": "న్మ",
    "4413": "భ్యర్థ",
    "4414": "ొద్ద",
    "4415": "ాట",
    "4416": "బ్లిక",
    "4417": "ిపోయిన",
    "4418": "మ్మూ-క",
    "4419": "ోరణ",
    "4420": "ెవర",
    "4421": " విషయాన్ని ",
    "4422": " ఎన్నికల",
    "4423": "ారక",
    "4424": "్యాగ",
    "4425": "న్‌ బ",
    "4426": "్విక",
    "4427": "ిగా క",
    "4428": "ెలికాం",
    "4429": " శివ",
    "4430": " పిటిష",
    "4431": " కొనుగ",
    "4432": " పెరిగ",
    "4433": "ర్లతో ",
    "4434": "రిగింది ",
    "4435": " స్థాయిలో ",
    "4436": "ినిమ",
    "4437": "ేవలను ",
    "4438": "విష్క",
    "4439": "ారీగా ",
    "4440": "్‌ అభ",
    "4441": "ం\nమ",
    "4442": "ెట్టుబడులు ",
    "4443": " మార్చ",
    "4444": " ఒక్క",
    "4445": "ులు న",
    "4446": " ఫిర్యాద",
    "4447": "మిన",
    "4448": "ంన",
    "4449": "ాదార",
    "4450": "్‌ శర్మ",
    "4451": "ర్యాప్తు ",
    "4452": "సం",
    "4453": "ి ఉ",
    "4454": "ీని ",
    "4455": " చేశ",
    "4456": " నిందిత",
    "4457": "ునీల",
    "4458": "ంటల",
    "4459": "ు\n                       ",
    "4460": "ి చూస",
    "4461": "క్ష్మ",
    "4462": "ుద",
    "4463": "ండ",
    "4464": "ని చెప్ప",
    "4465": "మ్మెల్య",
    "4466": "్‌ టోర్నీలో ",
    "4467": "ిర్వహించిన",
    "4468": "రంగ",
    "4469": "ి 9",
    "4470": "ద్వ",
    "4471": "ాధ్యత",
    "4472": "ర్లాండ",
    "4473": "డం లేద",
    "4474": " హీర",
    "4475": "ీడీప",
    "4476": "ోంది.",
    "4477": "\nపాయింట్ల",
    "4478": " నెలల",
    "4479": "త్య",
    "4480": "\nమ్యాచ",
    "4481": " \n                       ",
    "4482": "్రామీణ",
    "4483": "ారత్‌లో ",
    "4484": " అనుభవ",
    "4485": "ి ప్రత్య",
    "4486": "ం కూడా ",
    "4487": "ొజ",
    "4488": "వేల",
    "4489": "ర",
    "4490": " బాధ్యత",
    "4491": " ప్రమాద",
    "4492": "ిరాట",
    "4493": "ర్లో ",
    "4494": "థ్లెట",
    "4495": "ాస్ప",
    "4496": "వార్డ",
    "4497": "ు 10",
    "4498": "్‌వర్క",
    "4499": " ఆందోళన"
}